{
  "version": "1.0",
  "truncation": null,
  "padding": null,
  "added_tokens": [
    {
      "id": 0,
      "content": "[UNK]",
      "single_word": false,
      "lstrip": false,
      "rstrip": false,
      "normalized": false,
      "special": true
    },
    {
      "id": 1,
      "content": "[PAD]",
      "single_word": false,
      "lstrip": false,
      "rstrip": false,
      "normalized": false,
      "special": true
    },
    {
      "id": 2,
      "content": "[CLS]",
      "single_word": false,
      "lstrip": false,
      "rstrip": false,
      "normalized": false,
      "special": true
    },
    {
      "id": 3,
      "content": "[SEP]",
      "single_word": false,
      "lstrip": false,
      "rstrip": false,
      "normalized": false,
      "special": true
    },
    {
      "id": 4,
      "content": "[MASK]",
      "single_word": false,
      "lstrip": false,
      "rstrip": false,
      "normalized": false,
      "special": true
    }
  ],
  "normalizer": null,
  "pre_tokenizer": {
    "type": "Whitespace"
  },
  "post_processor": null,
  "decoder": null,
  "model": {
    "type": "BPE",
    "dropout": null,
    "unk_token": "[UNK]",
    "continuing_subword_prefix": null,
    "end_of_word_suffix": null,
    "fuse_unk": false,
    "byte_fallback": false,
    "ignore_merges": false,
    "vocab": {
      "[UNK]": 0,
      "[PAD]": 1,
      "[CLS]": 2,
      "[SEP]": 3,
      "[MASK]": 4,
      "'": 5,
      "a": 6,
      "b": 7,
      "c": 8,
      "d": 9,
      "e": 10,
      "f": 11,
      "g": 12,
      "h": 13,
      "i": 14,
      "j": 15,
      "k": 16,
      "l": 17,
      "m": 18,
      "n": 19,
      "o": 20,
      "p": 21,
      "r": 22,
      "s": 23,
      "t": 24,
      "u": 25,
      "v": 26,
      "w": 27,
      "y": 28,
      "z": 29,
      "à": 30,
      "æ": 31,
      "é": 32,
      "ë": 33,
      "ó": 34,
      "õ": 35,
      "ö": 36,
      "ü": 37,
      "ā": 38,
      "ă": 39,
      "ġ": 40,
      "ж": 41,
      "ш": 42,
      "ь": 43,
      "ee": 44,
      "in": 45,
      "aw": 46,
      "éi": 47,
      "oo": 48,
      "sh": 49,
      "ai": 50,
      "en": 51,
      "ou": 52,
      "st": 53,
      "zh": 54,
      "dzh": 55,
      "ree": 56,
      "ik": 57,
      "æn": 58,
      "un": 59,
      "it": 60,
      "is": 61,
      "lee": 62,
      "im": 63,
      "ing": 64,
      "il": 65,
      "tr": 66,
      "iv": 67,
      "ór": 68,
      "on": 69,
      "pr": 70,
      "es": 71,
      "àn": 72,
      "et": 73,
      "iz": 74,
      "al": 75,
      "ul": 76,
      "awr": 77,
      "éit": 78,
      "er": 79,
      "an": 80,
      "el": 81,
      "gr": 82,
      "id": 83,
      "kr": 84,
      "æk": 85,
      "ăn": 86,
      "ar": 87,
      "au": 88,
      "dee": 89,
      "ek": 90,
      "see": 91,
      "em": 92,
      "th": 93,
      "tsh": 94,
      "ur": 95,
      "ir": 96,
      "pee": 97,
      "æl": 98,
      "éish": 99,
      "ib": 100,
      "ol": 101,
      "or": 102,
      "awk": 103,
      "ent": 104,
      "ain": 105,
      "æb": 106,
      "iu": 107,
      "ist": 108,
      "joo": 109,
      "æm": 110,
      "dr": 111,
      "kl": 112,
      "ut": 113,
      "yoo": 114,
      "ăl": 115,
      "awn": 116,
      "fl": 117,
      "ig": 118,
      "os": 119,
      "æt": 120,
      "ól": 121,
      "int": 122,
      "awd": 123,
      "aws": 124,
      "ait": 125,
      "as": 126,
      "at": 127,
      "eu": 128,
      "om": 129,
      "um": 130,
      "us": 131,
      "ær": 132,
      "awl": 133,
      "awt": 134,
      "éil": 135,
      "str": 136,
      "dzhee": 137,
      "uu": 138,
      "æs": 139,
      "ón": 140,
      "awm": 141,
      "oum": 142,
      "æng": 143,
      "am": 144,
      "br": 145,
      "ev": 146,
      "kw": 147,
      "nee": 148,
      "se": 149,
      "si": 150,
      "éin": 151,
      "ër": 152,
      "ăk": 153,
      "oon": 154,
      "aim": 155,
      "out": 156,
      "dh": 157,
      "gk": 158,
      "ps": 159,
      "soo": 160,
      "ăm": 161,
      "aun": 162,
      "di": 163,
      "est": 164,
      "fr": 165,
      "hai": 166,
      "ip": 167,
      "ish": 168,
      "ot": 169,
      "pl": 170,
      "rr": 171,
      "tin": 172,
      "æf": 173,
      "æg": 174,
      "ót": 175,
      "ins": 176,
      "éik": 177,
      "ook": 178,
      "aiz": 179,
      "oul": 180,
      "ănd": 181,
      "ekt": 182,
      "be": 183,
      "bà": 184,
      "bee": 185,
      "dis": 186,
      "eg": 187,
      "fee": 188,
      "fen": 189,
      "gl": 190,
      "if": 191,
      "kéi": 192,
      "kæn": 193,
      "loo": 194,
      "min": 195,
      "men": 196,
      "oree": 197,
      "sl": 198,
      "só": 199,
      "uun": 200,
      "vee": 201,
      "æv": 202,
      "æst": 203,
      "inee": 204,
      "awp": 205,
      "awz": 206,
      "éib": 207,
      "éid": 208,
      "aid": 209,
      "ail": 210,
      "ens": 211,
      "iks": 212,
      "ænt": 213,
      "bi": 214,
      "bl": 215,
      "bó": 216,
      "din": 217,
      "ef": 218,
      "edzhee": 219,
      "gol": 220,
      "hr": 221,
      "idzh": 222,
      "ilee": 223,
      "ka": 224,
      "kou": 225,
      "mr": 226,
      "mee": 227,
      "ob": 228,
      "oz": 229,
      "pin": 230,
      "paw": 231,
      "péi": 232,
      "pen": 233,
      "piz": 234,
      "rn": 235,
      "rt": 236,
      "sin": 237,
      "siz": 238,
      "tu": 239,
      "tee": 240,
      "ub": 241,
      "uree": 242,
      "we": 243,
      "wë": 244,
      "àm": 245,
      "ælee": 246,
      "ăb": 247,
      "ăp": 248,
      "ăst": 249,
      "eet": 250,
      "shoo": 251,
      "aik": 252,
      "oun": 253,
      "unt": 254,
      "ànt": 255,
      "af": 256,
      "alee": 257,
      "aul": 258,
      "blee": 259,
      "bim": 260,
      "bor": 261,
      "dn": 262,
      "do": 263,
      "dë": 264,
      "dik": 265,
      "dim": 266,
      "ding": 267,
      "did": 268,
      "ed": 269,
      "ez": 270,
      "eree": 271,
      "fà": 272,
      "iee": 273,
      "iree": 274,
      "kó": 275,
      "ken": 276,
      "kree": 277,
      "ld": 278,
      "liv": 279,
      "mi": 280,
      "mik": 281,
      "miv": 282,
      "mal": 283,
      "man": 284,
      "mæl": 285,
      "nt": 286,
      "nór": 287,
      "od": 288,
      "ok": 289,
      "ov": 290,
      "poo": 291,
      "pæl": 292,
      "rz": 293,
      "rou": 294,
      "sp": 295,
      "sæ": 296,
      "sit": 297,
      "sing": 298,
      "siv": 299,
      "sàn": 300,
      "san": 301,
      "sau": 302,
      "sól": 303,
      "ud": 304,
      "uf": 305,
      "wór": 306,
      "yu": 307,
      "zéi": 308,
      "àl": 309,
      "æd": 310,
      "æp": 311,
      "æsh": 312,
      "æps": 313,
      "ëm": 314,
      "ók": 315,
      "ind": 316,
      "indzh": 317,
      "intr": 318,
      "awb": 319,
      "awf": 320,
      "éidr": 321,
      "shon": 322,
      "ouk": 323,
      "our": 324,
      "dzhen": 325,
      "dzhou": 326,
      "ikt": 327,
      "und": 328,
      "ith": 329,
      "isee": 330,
      "esee": 331,
      "ets": 332,
      "deen": 333,
      "thil": 334,
      "éishun": 335,
      "éishon": 336,
      "igs": 337,
      "ak": 338,
      "az": 339,
      "ast": 340,
      "aree": 341,
      "aing": 342,
      "ba": 343,
      "bn": 344,
      "bu": 345,
      "béi": 346,
      "boo": 347,
      "ben": 348,
      "bæk": 349,
      "bæl": 350,
      "bawk": 351,
      "bent": 352,
      "băl": 353,
      "bait": 354,
      "ch": 355,
      "ck": 356,
      "de": 357,
      "dz": 358,
      "den": 359,
      "déit": 360,
      "dawm": 361,
      "ep": 362,
      "elee": 363,
      "estr": 364,
      "fai": 365,
      "fit": 366,
      "fór": 367,
      "fir": 368,
      "fær": 369,
      "fip": 370,
      "gh": 371,
      "gm": 372,
      "gee": 373,
      "gou": 374,
      "gree": 375,
      "gæn": 376,
      "gór": 377,
      "gæl": 378,
      "hy": 379,
      "hoo": 380,
      "hit": 381,
      "his": 382,
      "hăn": 383,
      "haws": 384,
      "hawm": 385,
      "iy": 386,
      "izh": 387,
      "iun": 388,
      "iit": 389,
      "iil": 390,
      "ku": 391,
      "ky": 392,
      "kà": 393,
      "ké": 394,
      "kă": 395,
      "kis": 396,
      "kiv": 397,
      "kór": 398,
      "kul": 399,
      "kawr": 400,
      "kæl": 401,
      "kyoo": 402,
      "kawl": 403,
      "kout": 404,
      "lo": 405,
      "lz": 406,
      "lë": 407,
      "lit": 408,
      "me": 409,
      "mó": 410,
      "maw": 411,
      "mai": 412,
      "mou": 413,
      "mit": 414,
      "ming": 415,
      "mon": 416,
      "măn": 417,
      "mër": 418,
      "ne": 419,
      "ng": 420,
      "nz": 421,
      "nai": 422,
      "nou": 423,
      "nun": 424,
      "nes": 425,
      "néit": 426,
      "nem": 427,
      "nas": 428,
      "noum": 429,
      "noon": 430,
      "op": 431,
      "olee": 432,
      "py": 433,
      "pë": 434,
      "pă": 435,
      "plee": 436,
      "pàn": 437,
      "pet": 438,
      "pal": 439,
      "pul": 440,
      "pid": 441,
      "par": 442,
      "put": 443,
      "pawm": 444,
      "peg": 445,
      "ro": 446,
      "rai": 447,
      "riv": 448,
      "rist": 449,
      "sj": 450,
      "sen": 451,
      "sou": 452,
      "sik": 453,
      "sæn": 454,
      "sæk": 455,
      "sait": 456,
      "sawl": 457,
      "sàm": 458,
      "ti": 459,
      "ts": 460,
      "too": 461,
      "tăn": 462,
      "tum": 463,
      "uz": 464,
      "uut": 465,
      "va": 466,
      "vr": 467,
      "vim": 468,
      "viu": 469,
      "wă": 470,
      "wai": 471,
      "wit": 472,
      "wiv": 473,
      "yul": 474,
      "yan": 475,
      "zm": 476,
      "zin": 477,
      "zen": 478,
      "ædzh": 479,
      "æree": 480,
      "ætr": 481,
      "ëd": 482,
      "ën": 483,
      "ësh": 484,
      "óst": 485,
      "ótr": 486,
      "ăf": 487,
      "ăt": 488,
      "ăgol": 489,
      "eev": 490,
      "inm": 491,
      "inz": 492,
      "éis": 493,
      "éiz": 494,
      "éidzh": 495,
      "oog": 496,
      "oou": 497,
      "ooz": 498,
      "oost": 499,
      "shi": 500,
      "shee": 501,
      "shen": 502,
      "shur": 503,
      "shàl": 504,
      "air": 505,
      "ais": 506,
      "ena": 507,
      "entr": 508,
      "stl": 509,
      "stet": 510,
      "stéik": 511,
      "dzhr": 512,
      "reek": 513,
      "reekou": 514,
      "ikr": 515,
      "ikal": 516,
      "ænd": 517,
      "ænj": 518,
      "ænk": 519,
      "leek": 520,
      "imee": 521,
      "imel": 522,
      "ilon": 523,
      "ilas": 524,
      "onh": 525,
      "ont": 526,
      "praw": 527,
      "prsh": 528,
      "ànd": 529,
      "eth": 530,
      "ale": 531,
      "alawz": 532,
      "awrt": 533,
      "awrdzh": 534,
      "éitin": 535,
      "era": 536,
      "erom": 537,
      "ans": 538,
      "elt": 539,
      "grou": 540,
      "idim": 541,
      "kræn": 542,
      "krit": 543,
      "kraim": 544,
      "ăng": 545,
      "arr": 546,
      "auk": 547,
      "eks": 548,
      "emee": 549,
      "thr": 550,
      "thing": 551,
      "tshu": 552,
      "iris": 553,
      "peee": 554,
      "peel": 555,
      "éishl": 556,
      "ibl": 557,
      "orz": 558,
      "æbing": 559,
      "joopee": 560,
      "ăle": 561,
      "awnd": 562,
      "awntin": 563,
      "flet": 564,
      "igel": 565,
      "ætee": 566,
      "æriks": 567,
      "éili": 568,
      "oumee": 569,
      "ængl": 570,
      "bro": 571,
      "ăko": 572,
      "ăkt": 573,
      "sooæ": 574,
      "ouléit": 575,
      "beb": 576,
      "sóf": 577,
      "æven": 578,
      "mrkr": 579,
      "pawg": 580,
      "kós": 581,
      "ab": 582,
      "ad": 583,
      "ae": 584,
      "ag": 585,
      "ap": 586,
      "aee": 587,
      "aan": 588,
      "akr": 589,
      "adee": 590,
      "akæn": 591,
      "abor": 592,
      "adik": 593,
      "ashee": 594,
      "bs": 595,
      "bé": 596,
      "bin": 597,
      "baw": 598,
      "bou": 599,
      "bree": 600,
      "bik": 601,
      "bæn": 602,
      "bis": 603,
      "bing": 604,
      "bil": 605,
      "bes": 606,
      "bàn": 607,
      "bet": 608,
      "bul": 609,
      "bawr": 610,
      "ber": 611,
      "bau": 612,
      "btsh": 613,
      "ból": 614,
      "baws": 615,
      "buu": 616,
      "boum": 617,
      "bev": 618,
      "bër": 619,
      "bæf": 620,
      "boul": 621,
      "bail": 622,
      "biks": 623,
      "băb": 624,
      "băst": 625,
      "bindzh": 626,
      "bouk": 627,
      "bigs": 628,
      "byan": 629,
      "balawz": 630,
      "bjoopee": 631,
      "bawnd": 632,
      "dd": 633,
      "dp": 634,
      "dt": 635,
      "dy": 636,
      "dà": 637,
      "déi": 638,
      "doo": 639,
      "dree": 640,
      "dæn": 641,
      "dun": 642,
      "div": 643,
      "don": 644,
      "diz": 645,
      "dal": 646,
      "dawr": 647,
      "der": 648,
      "del": 649,
      "dar": 650,
      "dir": 651,
      "dæl": 652,
      "déish": 653,
      "dib": 654,
      "dol": 655,
      "dent": 656,
      "dain": 657,
      "dist": 658,
      "dig": 659,
      "dæt": 660,
      "dól": 661,
      "dev": 662,
      "dnee": 663,
      "déin": 664,
      "dout": 665,
      "dăm": 666,
      "dest": 667,
      "dekt": 668,
      "dawp": 669,
      "déib": 670,
      "dail": 671,
      "diks": 672,
      "daik": 673,
      "dalee": 674,
      "digs": 675,
      "dgh": 676,
      "dkæl": 677,
      "demee": 678,
      "doumee": 679,
      "eh": 680,
      "eo": 681,
      "edzh": 682,
      "eun": 683,
      "etr": 684,
      "edee": 685,
      "edr": 686,
      "eos": 687,
      "edh": 688,
      "eshon": 689,
      "ebait": 690,
      "eck": 691,
      "eshen": 692,
      "eorz": 693,
      "fa": 694,
      "fe": 695,
      "fo": 696,
      "fu": 697,
      "fæ": 698,
      "fë": 699,
      "fin": 700,
      "faw": 701,
      "féi": 702,
      "fæn": 703,
      "fun": 704,
      "fiv": 705,
      "fon": 706,
      "fes": 707,
      "fiz": 708,
      "fawr": 709,
      "féit": 710,
      "fer": 711,
      "făn": 712,
      "fau": 713,
      "for": 714,
      "fawk": 715,
      "fawd": 716,
      "fawt": 717,
      "féil": 718,
      "fón": 719,
      "fev": 720,
      "féin": 721,
      "făm": 722,
      "foul": 723,
      "fănd": 724,
      "foree": 725,
      "fæst": 726,
      "finee": 727,
      "fail": 728,
      "fedzhee": 729,
      "fhr": 730,
      "fànt": 731,
      "fæp": 732,
      "fëm": 733,
      "felee": 734,
      "filon": 735,
      "fawntin": 736,
      "gi": 737,
      "gs": 738,
      "gw": 739,
      "gæ": 740,
      "git": 741,
      "gon": 742,
      "gàn": 743,
      "géit": 744,
      "gæk": 745,
      "gar": 746,
      "gir": 747,
      "gawk": 748,
      "gain": 749,
      "gawd": 750,
      "gat": 751,
      "geu": 752,
      "gæs": 753,
      "gæng": 754,
      "gub": 755,
      "gwe": 756,
      "gælee": 757,
      "găb": 758,
      "gbéi": 759,
      "gbawk": 760,
      "gpid": 761,
      "geks": 762,
      "getr": 763,
      "hb": 764,
      "hj": 765,
      "ho": 766,
      "hu": 767,
      "hw": 768,
      "hæ": 769,
      "hæn": 770,
      "hun": 771,
      "him": 772,
      "hil": 773,
      "hór": 774,
      "hau": 775,
      "hib": 776,
      "hent": 777,
      "hiu": 778,
      "hăl": 779,
      "hait": 780,
      "houm": 781,
      "hoon": 782,
      "hout": 783,
      "héik": 784,
      "hekt": 785,
      "hloo": 786,
      "hef": 787,
      "hæps": 788,
      "hind": 789,
      "hintr": 790,
      "hëd": 791,
      "hótr": 792,
      "hăt": 793,
      "hikal": 794,
      "hawrdzh": 795,
      "héitin": 796,
      "hera": 797,
      "hæriks": 798,
      "ii": 799,
      "iai": 800,
      "ipr": 801,
      "iiz": 802,
      "ial": 803,
      "iar": 804,
      "iéil": 805,
      "idzhee": 806,
      "iez": 807,
      "je": 808,
      "ju": 809,
      "jw": 810,
      "jou": 811,
      "jlee": 812,
      "jór": 813,
      "jul": 814,
      "jid": 815,
      "jol": 816,
      "jut": 817,
      "jawn": 818,
      "joz": 819,
      "jak": 820,
      "jial": 821,
      "km": 822,
      "ko": 823,
      "ks": 824,
      "kæ": 825,
      "kee": 826,
      "kaw": 827,
      "king": 828,
      "kal": 829,
      "kéit": 830,
      "ker": 831,
      "kau": 832,
      "kek": 833,
      "kol": 834,
      "kor": 835,
      "kawk": 836,
      "kiu": 837,
      "kist": 838,
      "kæm": 839,
      "kawn": 840,
      "kæt": 841,
      "kawd": 842,
      "kat": 843,
      "keu": 844,
      "kawt": 845,
      "kæs": 846,
      "kev": 847,
      "koon": 848,
      "kaim": 849,
      "kot": 850,
      "koul": 851,
      "kănd": 852,
      "kilee": 853,
      "koz": 854,
      "kànt": 855,
      "kiree": 856,
      "kæp": 857,
      "kooz": 858,
      "kair": 859,
      "kikr": 860,
      "kéishl": 861,
      "kjoopee": 862,
      "kăkt": 863,
      "keck": 864,
      "la": 865,
      "lu": 866,
      "ly": 867,
      "lö": 868,
      "léi": 869,
      "lou": 870,
      "lik": 871,
      "lis": 872,
      "lim": 873,
      "les": 874,
      "læk": 875,
      "lem": 876,
      "lawn": 877,
      "lawl": 878,
      "léil": 879,
      "luu": 880,
      "læs": 881,
      "læng": 882,
      "lam": 883,
      "lev": 884,
      "lrr": 885,
      "leg": 886,
      "laid": 887,
      "lænt": 888,
      "ledzhee": 889,
      "lrn": 890,
      "lók": 891,
      "lets": 892,
      "lep": 893,
      "lti": 894,
      "lætr": 895,
      "lair": 896,
      "lont": 897,
      "lauk": 898,
      "lthing": 899,
      "læbing": 900,
      "ljut": 901,
      "mw": 902,
      "mă": 903,
      "moo": 904,
      "mæn": 905,
      "mór": 906,
      "màn": 907,
      "méit": 908,
      "mer": 909,
      "mor": 910,
      "miu": 911,
      "mut": 912,
      "myoo": 913,
      "măl": 914,
      "mawn": 915,
      "maws": 916,
      "mas": 917,
      "mær": 918,
      "mawl": 919,
      "moon": 920,
      "maun": 921,
      "mtin": 922,
      "mæf": 923,
      "mót": 924,
      "mook": 925,
      "meg": 926,
      "muun": 927,
      "maid": 928,
      "mef": 929,
      "măb": 930,
      "moun": 931,
      "mok": 932,
      "mund": 933,
      "mboo": 934,
      "mbent": 935,
      "mféi": 936,
      "mjou": 937,
      "nn": 938,
      "nr": 939,
      "nó": 940,
      "naw": 941,
      "nit": 942,
      "net": 943,
      "nul": 944,
      "næk": 945,
      "nth": 946,
      "nol": 947,
      "niu": 948,
      "nawd": 949,
      "nus": 950,
      "nawt": 951,
      "nuu": 952,
      "naun": 953,
      "nip": 954,
      "năst": 955,
      "ned": 956,
      "nyu": 957,
      "nók": 958,
      "niun": 959,
      "nlë": 960,
      "nooz": 961,
      "nale": 962,
      "nibl": 963,
      "nakæn": 964,
      "njul": 965,
      "oe": 966,
      "ow": 967,
      "ops": 968,
      "obee": 969,
      "ogain": 970,
      "pim": 971,
      "pil": 972,
      "pór": 973,
      "pes": 974,
      "pawr": 975,
      "per": 976,
      "pir": 977,
      "pain": 978,
      "paws": 979,
      "peu": 980,
      "pær": 981,
      "pawt": 982,
      "për": 983,
      "păm": 984,
      "pest": 985,
      "paiz": 986,
      "pănd": 987,
      "pæst": 988,
      "pænt": 989,
      "pilee": 990,
      "pwë": 991,
      "poun": 992,
      "pisee": 993,
      "piit": 994,
      "pky": 995,
      "puut": 996,
      "póst": 997,
      "pais": 998,
      "pænd": 999,
      "păng": 1000,
      "păle": 1001,
      "peshon": 1002,
      "piar": 1003,
      "pkéit": 1004,
      "rd": 1005,
      "ri": 1006,
      "ru": 1007,
      "rv": 1008,
      "rà": 1009,
      "ró": 1010,
      "ren": 1011,
      "rree": 1012,
      "ràn": 1013,
      "riz": 1014,
      "rel": 1015,
      "rid": 1016,
      "rar": 1017,
      "rek": 1018,
      "rem": 1019,
      "rir": 1020,
      "rain": 1021,
      "răl": 1022,
      "rig": 1023,
      "rus": 1024,
      "rdzhee": 1025,
      "ruu": 1026,
      "rnee": 1027,
      "réin": 1028,
      "raim": 1029,
      "rest": 1030,
      "rót": 1031,
      "rilee": 1032,
      "rld": 1033,
      "ræp": 1034,
      "réidr": 1035,
      "rdzhen": 1036,
      "raz": 1037,
      "raing": 1038,
      "relee": 1039,
      "rhit": 1040,
      "rming": 1041,
      "roou": 1042,
      "răng": 1043,
      "rætee": 1044,
      "rkéishl": 1045,
      "sa": 1046,
      "sw": 1047,
      "sà": 1048,
      "séi": 1049,
      "sai": 1050,
      "sree": 1051,
      "sis": 1052,
      "sór": 1053,
      "sawr": 1054,
      "skr": 1055,
      "sar": 1056,
      "sek": 1057,
      "spee": 1058,
      "sib": 1059,
      "sor": 1060,
      "sawk": 1061,
      "sent": 1062,
      "sjoo": 1063,
      "sæm": 1064,
      "seu": 1065,
      "som": 1066,
      "séil": 1067,
      "sse": 1068,
      "séin": 1069,
      "saim": 1070,
      "saun": 1071,
      "sæf": 1072,
      "saiz": 1073,
      "sekt": 1074,
      "srn": 1075,
      "srt": 1076,
      "sken": 1077,
      "sman": 1078,
      "sdeen": 1079,
      "sfit": 1080,
      "skă": 1081,
      "sleek": 1082,
      "selt": 1083,
      "semee": 1084,
      "sfë": 1085,
      "skee": 1086,
      "snit": 1087,
      "srming": 1088,
      "tt": 1089,
      "tz": 1090,
      "tă": 1091,
      "taw": 1092,
      "tai": 1093,
      "ten": 1094,
      "tou": 1095,
      "tst": 1096,
      "tzh": 1097,
      "tun": 1098,
      "tes": 1099,
      "tàn": 1100,
      "tel": 1101,
      "tar": 1102,
      "tur": 1103,
      "tent": 1104,
      "tain": 1105,
      "tjoo": 1106,
      "tær": 1107,
      "téil": 1108,
      "toon": 1109,
      "téik": 1110,
      "tawz": 1111,
      "téib": 1112,
      "tilee": 1113,
      "twe": 1114,
      "tàm": 1115,
      "tăp": 1116,
      "tman": 1117,
      "tók": 1118,
      "tótr": 1119,
      "treekou": 1120,
      "tbawr": 1121,
      "tdoo": 1122,
      "tju": 1123,
      "togain": 1124,
      "ush": 1125,
      "ust": 1126,
      "uit": 1127,
      "ulee": 1128,
      "uth": 1129,
      "ufl": 1130,
      "uiris": 1131,
      "ukawk": 1132,
      "vh": 1133,
      "vn": 1134,
      "vo": 1135,
      "vé": 1136,
      "væn": 1137,
      "ving": 1138,
      "vil": 1139,
      "vawr": 1140,
      "vel": 1141,
      "vir": 1142,
      "vent": 1143,
      "vawn": 1144,
      "væt": 1145,
      "vint": 1146,
      "vawl": 1147,
      "vër": 1148,
      "volee": 1149,
      "vëd": 1150,
      "véidzh": 1151,
      "vera": 1152,
      "viiz": 1153,
      "vukawk": 1154,
      "wéi": 1155,
      "woo": 1156,
      "wil": 1157,
      "wes": 1158,
      "wàn": 1159,
      "wiz": 1160,
      "wal": 1161,
      "wer": 1162,
      "wawk": 1163,
      "wăl": 1164,
      "wawl": 1165,
      "wawt": 1166,
      "wéil": 1167,
      "wuu": 1168,
      "wăk": 1169,
      "wrr": 1170,
      "waiz": 1171,
      "wawz": 1172,
      "wéib": 1173,
      "wéid": 1174,
      "wrz": 1175,
      "wund": 1176,
      "wiy": 1177,
      "wædzh": 1178,
      "wibl": 1179,
      "wængl": 1180,
      "wrnee": 1181,
      "yun": 1182,
      "yór": 1183,
      "yon": 1184,
      "yau": 1185,
      "yur": 1186,
      "yut": 1187,
      "yedzhee": 1188,
      "ypen": 1189,
      "ynlë": 1190,
      "zee": 1191,
      "zoo": 1192,
      "zou": 1193,
      "zzh": 1194,
      "zis": 1195,
      "zgr": 1196,
      "zem": 1197,
      "zir": 1198,
      "zib": 1199,
      "ziu": 1200,
      "zaun": 1201,
      "zæg": 1202,
      "zuun": 1203,
      "zmal": 1204,
      "zkiv": 1205,
      "zànd": 1206,
      "zæven": 1207,
      "zap": 1208,
      "zbul": 1209,
      "àf": 1210,
      "ài": 1211,
      "àk": 1212,
      "àst": 1213,
      "àree": 1214,
      "àil": 1215,
      "àiz": 1216,
      "àgr": 1217,
      "àmin": 1218,
      "àidzh": 1219,
      "àgee": 1220,
      "àpy": 1221,
      "àbing": 1222,
      "àpisee": 1223,
      "àtst": 1224,
      "æen": 1225,
      "æsee": 1226,
      "ædh": 1227,
      "ædi": 1228,
      "æpl": 1229,
      "ætshu": 1230,
      "ést": 1231,
      "éón": 1232,
      "ëst": 1233,
      "ëgr": 1234,
      "ëth": 1235,
      "ëvn": 1236,
      "óm": 1237,
      "óin": 1238,
      "óree": 1239,
      "óit": 1240,
      "óing": 1241,
      "ósee": 1242,
      "óth": 1243,
      "óish": 1244,
      "óed": 1245,
      "ópkéit": 1246,
      "õmee": 1247,
      "āk": 1248,
      "ārld": 1249,
      "ăree": 1250,
      "ălee": 1251,
      "ăgr": 1252,
      "ăps": 1253,
      "ădzhou": 1254,
      "ăvim": 1255,
      "ădal": 1256,
      "ăài": 1257,
      "ġraim": 1258,
      "жь": 1259,
      "шf": 1260,
      "eee": 1261,
      "eem": 1262,
      "eeo": 1263,
      "eein": 1264,
      "eeaw": 1265,
      "eesh": 1266,
      "eeen": 1267,
      "eezh": 1268,
      "eestr": 1269,
      "eenee": 1270,
      "eeka": 1271,
      "eeéidr": 1272,
      "eemó": 1273,
      "eenz": 1274,
      "eesj": 1275,
      "eezm": 1276,
      "eeën": 1277,
      "eeéili": 1278,
      "eewund": 1279,
      "inü": 1280,
      "inen": 1281,
      "inzh": 1282,
      "inree": 1283,
      "inim": 1284,
      "inon": 1285,
      "inal": 1286,
      "inéit": 1287,
      "inent": 1288,
      "indr": 1289,
      "inæng": 1290,
      "insi": 1291,
      "ininz": 1292,
      "ineo": 1293,
      "infëm": 1294,
      "inhăt": 1295,
      "inledzhee": 1296,
      "innth": 1297,
      "invæn": 1298,
      "awsh": 1299,
      "awree": 1300,
      "awil": 1301,
      "awpr": 1302,
      "awàn": 1303,
      "awthil": 1304,
      "awwit": 1305,
      "éip": 1306,
      "éir": 1307,
      "éiv": 1308,
      "éien": 1309,
      "éist": 1310,
      "éikr": 1311,
      "éiib": 1312,
      "éiæb": 1313,
      "éimbent": 1314,
      "éiġraim": 1315,
      "éieeen": 1316,
      "ood": 1317,
      "ool": 1318,
      "oor": 1319,
      "oozh": 1320,
      "oodzh": 1321,
      "ooait": 1322,
      "oodh": 1323,
      "oofen": 1324,
      "oosæ": 1325,
      "oosau": 1326,
      "oome": 1327,
      "ootum": 1328,
      "oova": 1329,
      "ooeshen": 1330,
      "oofæ": 1331,
      "oomook": 1332,
      "ootawz": 1333,
      "sha": 1334,
      "shin": 1335,
      "shéi": 1336,
      "shun": 1337,
      "shis": 1338,
      "shil": 1339,
      "shet": 1340,
      "shau": 1341,
      "shæl": 1342,
      "shos": 1343,
      "shól": 1344,
      "shom": 1345,
      "shër": 1346,
      "shót": 1347,
      "shmen": 1348,
      "shawp": 1349,
      "shob": 1350,
      "shouléit": 1351,
      "shedzh": 1352,
      "shhór": 1353,
      "shlö": 1354,
      "shuit": 1355,
      "shypen": 1356,
      "shëgr": 1357,
      "shópkéit": 1358,
      "aiv": 1359,
      "aien": 1360,
      "aiæn": 1361,
      "aiit": 1362,
      "aiiz": 1363,
      "aier": 1364,
      "aian": 1365,
      "aigr": 1366,
      "aistr": 1367,
      "aiăk": 1368,
      "aidzhen": 1369,
      "aiorz": 1370,
      "enz": 1371,
      "enan": 1372,
      "enur": 1373,
      "enæs": 1374,
      "enot": 1375,
      "enoz": 1376,
      "enshee": 1377,
      "engs": 1378,
      "oulee": 1379,
      "ouyoo": 1380,
      "ousan": 1381,
      "oukrit": 1382,
      "oubigs": 1383,
      "ouzib": 1384,
      "oushypen": 1385,
      "stæn": 1386,
      "stim": 1387,
      "stist": 1388,
      "stón": 1389,
      "stawp": 1390,
      "stoz": 1391,
      "stéitin": 1392,
      "stelt": 1393,
      "steeéili": 1394,
      "stousan": 1395,
      "zhim": 1396,
      "zhiz": 1397,
      "zher": 1398,
      "zhel": 1399,
      "zhăl": 1400,
      "dzhin": 1401,
      "dzhree": 1402,
      "dzhik": 1403,
      "dzhæn": 1404,
      "dzhit": 1405,
      "dzhim": 1406,
      "dzhór": 1407,
      "dzhes": 1408,
      "dzhet": 1409,
      "dzhæk": 1410,
      "dzhem": 1411,
      "dzhol": 1412,
      "dzhæb": 1413,
      "dzhos": 1414,
      "dzhom": 1415,
      "dzhéil": 1416,
      "dzhoon": 1417,
      "dzhail": 1418,
      "dzharee": 1419,
      "reetin": 1420,
      "ikee": 1421,
      "ikul": 1422,
      "ikón": 1423,
      "ikoum": 1424,
      "ikæg": 1425,
      "ikinee": 1426,
      "ikalee": 1427,
      "ikdon": 1428,
      "ikufl": 1429,
      "ænkl": 1430,
      "ænsau": 1431,
      "ænuf": 1432,
      "ænrót": 1433,
      "ænstousan": 1434,
      "ænikee": 1435,
      "ung": 1436,
      "unes": 1437,
      "undr": 1438,
      "unom": 1439,
      "unot": 1440,
      "unawf": 1441,
      "unje": 1442,
      "unóish": 1443,
      "uneeo": 1444,
      "itin": 1445,
      "itik": 1446,
      "item": 1447,
      "itur": 1448,
      "itawk": 1449,
      "itain": 1450,
      "itæm": 1451,
      "itook": 1452,
      "iteth": 1453,
      "itdent": 1454,
      "itri": 1455,
      "iteezm": 1456,
      "isa": 1457,
      "isd": 1458,
      "isr": 1459,
      "isik": 1460,
      "isur": 1461,
      "isish": 1462,
      "isekt": 1463,
      "isdéit": 1464,
      "isme": 1465,
      "isimee": 1466,
      "isbuu": 1467,
      "leeis": 1468,
      "leeam": 1469,
      "leeænt": 1470,
      "leegol": 1471,
      "leenór": 1472,
      "leedeen": 1473,
      "leedawm": 1474,
      "leezuun": 1475,
      "imon": 1476,
      "imăn": 1477,
      "imæb": 1478,
      "imist": 1479,
      "imat": 1480,
      "imekt": 1481,
      "imif": 1482,
      "imith": 1483,
      "imep": 1484,
      "imtoo": 1485,
      "imoost": 1486,
      "imfon": 1487,
      "imaistr": 1488,
      "inghăl": 1489,
      "ingkoz": 1490,
      "ilo": 1491,
      "ilus": 1492,
      "ilip": 1493,
      "iltee": 1494,
      "tra": 1495,
      "trl": 1496,
      "triz": 1497,
      "tran": 1498,
      "trsee": 1499,
      "tror": 1500,
      "trent": 1501,
      "træt": 1502,
      "treu": 1503,
      "troun": 1504,
      "trikt": 1505,
      "trets": 1506,
      "trænj": 1507,
      "trigel": 1508,
      "trrest": 1509,
      "tryut": 1510,
      "tréiib": 1511,
      "trikoum": 1512,
      "trænikee": 1513,
      "trimif": 1514,
      "ivee": 1515,
      "ivór": 1516,
      "iver": 1517,
      "ivar": 1518,
      "ivop": 1519,
      "iveos": 1520,
      "ivraz": 1521,
      "órsh": 1522,
      "óris": 1523,
      "órol": 1524,
      "órrz": 1525,
      "órzéi": 1526,
      "órdkæl": 1527,
      "órnet": 1528,
      "órsnit": 1529,
      "órviiz": 1530,
      "onis": 1531,
      "onshoo": 1532,
      "prg": 1533,
      "pres": 1534,
      "prawr": 1535,
      "prek": 1536,
      "prawk": 1537,
      "prain": 1538,
      "prist": 1539,
      "prkl": 1540,
      "prăl": 1541,
      "prær": 1542,
      "pruu": 1543,
      "præs": 1544,
      "prón": 1545,
      "préin": 1546,
      "præst": 1547,
      "priree": 1548,
      "prăt": 1549,
      "prawntin": 1550,
      "prràn": 1551,
      "préimbent": 1552,
      "prenz": 1553,
      "esou": 1554,
      "esàn": 1555,
      "esdo": 1556,
      "esoomook": 1557,
      "esunom": 1558,
      "àniz": 1559,
      "àntsh": 1560,
      "ànpoo": 1561,
      "ànind": 1562,
      "ànsawl": 1563,
      "àntrikoum": 1564,
      "etik": 1565,
      "etéit": 1566,
      "etip": 1567,
      "ethr": 1568,
      "etshoo": 1569,
      "etith": 1570,
      "etmaid": 1571,
      "etinon": 1572,
      "etengs": 1573,
      "alz": 1574,
      "alăn": 1575,
      "almó": 1576,
      "ulus": 1577,
      "awrm": 1578,
      "awrin": 1579,
      "awras": 1580,
      "awrshoo": 1581,
      "awrov": 1582,
      "awrgon": 1583,
      "awrsa": 1584,
      "awrisdéit": 1585,
      "awrpruu": 1586,
      "éitn": 1587,
      "éitik": 1588,
      "éiting": 1589,
      "éitid": 1590,
      "eréish": 1591,
      "erkw": 1592,
      "erot": 1593,
      "eridzh": 1594,
      "erdo": 1595,
      "ered": 1596,
      "erisimee": 1597,
      "and": 1598,
      "anist": 1599,
      "ansin": 1600,
      "anàidzh": 1601,
      "elf": 1602,
      "elit": 1603,
      "elkl": 1604,
      "elinent": 1605,
      "grek": 1606,
      "grain": 1607,
      "grook": 1608,
      "gréid": 1609,
      "grhr": 1610,
      "gràm": 1611,
      "grăp": 1612,
      "grdik": 1613,
      "grawnd": 1614,
      "grgælee": 1615,
      "grlis": 1616,
      "gràmin": 1617,
      "graiv": 1618,
      "ides": 1619,
      "idéit": 1620,
      "idiu": 1621,
      "idéin": 1622,
      "idhil": 1623,
      "idaien": 1624,
      "idisik": 1625,
      "kre": 1626,
      "krut": 1627,
      "kræt": 1628,
      "krait": 1629,
      "kræng": 1630,
      "kreg": 1631,
      "kræst": 1632,
      "krést": 1633,
      "krawrpruu": 1634,
      "ækt": 1635,
      "ækst": 1636,
      "ækse": 1637,
      "æksait": 1638,
      "ækstéik": 1639,
      "ækdiks": 1640,
      "ækipr": 1641,
      "ækjol": 1642,
      "æklthing": 1643,
      "ækséil": 1644,
      "æktra": 1645,
      "ănar": 1646,
      "ăngk": 1647,
      "ănva": 1648,
      "arse": 1649,
      "araid": 1650,
      "aréishun": 1651,
      "arentr": 1652,
      "areun": 1653,
      "aridhil": 1654,
      "ausi": 1655,
      "auféil": 1656,
      "aurd": 1657,
      "autogain": 1658,
      "deef": 1659,
      "deeon": 1660,
      "deeem": 1661,
      "deeiu": 1662,
      "deenee": 1663,
      "deeæv": 1664,
      "deeiree": 1665,
      "deehw": 1666,
      "deejak": 1667,
      "deedzharee": 1668,
      "eksp": 1669,
      "ekeesj": 1670,
      "ekshob": 1671,
      "seec": 1672,
      "seen": 1673,
      "seev": 1674,
      "seeree": 1675,
      "seepë": 1676,
      "seedéi": 1677,
      "seesha": 1678,
      "seeiteezm": 1679,
      "emint": 1680,
      "emas": 1681,
      "emben": 1682,
      "emont": 1683,
      "emfăm": 1684,
      "thawn": 1685,
      "thint": 1686,
      "thaun": 1687,
      "thulee": 1688,
      "theenz": 1689,
      "thaiæn": 1690,
      "tshi": 1691,
      "tshë": 1692,
      "tshou": 1693,
      "tshawn": 1694,
      "tshum": 1695,
      "tshawt": 1696,
      "tshæg": 1697,
      "tsheet": 1698,
      "tshoog": 1699,
      "tshentr": 1700,
      "tshoofen": 1701,
      "ural": 1702,
      "uram": 1703,
      "urev": 1704,
      "urót": 1705,
      "uraz": 1706,
      "urru": 1707,
      "ursaun": 1708,
      "ird": 1709,
      "irit": 1710,
      "irum": 1711,
      "irsoo": 1712,
      "iræsh": 1713,
      "peen": 1714,
      "peeæst": 1715,
      "peegree": 1716,
      "peekis": 1717,
      "peestet": 1718,
      "peeilo": 1719,
      "peetrænikee": 1720,
      "ældeeæv": 1721,
      "éishr": 1722,
      "éishen": 1723,
      "éishul": 1724,
      "éishob": 1725,
      "éishkeu": 1726,
      "éishuth": 1727,
      "ibéi": 1728,
      "ibil": 1729,
      "ibæt": 1730,
      "ibwe": 1731,
      "ibro": 1732,
      "ibrain": 1733,
      "ibæen": 1734,
      "ibóris": 1735,
      "oléishon": 1736,
      "olrdzhee": 1737,
      "oros": 1738,
      "oroum": 1739,
      "orook": 1740,
      "awksan": 1741,
      "awkuz": 1742,
      "awksrming": 1743,
      "awkirum": 1744,
      "entz": 1745,
      "entau": 1746,
      "entzhăl": 1747,
      "ainr": 1748,
      "ainee": 1749,
      "ainis": 1750,
      "ainsól": 1751,
      "ainetengs": 1752,
      "æbes": 1753,
      "æbfl": 1754,
      "æbum": 1755,
      "æbrr": 1756,
      "æbsing": 1757,
      "æbtum": 1758,
      "æbdéish": 1759,
      "æbrelee": 1760,
      "æbimekt": 1761,
      "iuhai": 1762,
      "iupin": 1763,
      "iuwéil": 1764,
      "istee": 1765,
      "istéid": 1766,
      "istaian": 1767,
      "jookl": 1768,
      "joodzhee": 1769,
      "jootu": 1770,
      "joomon": 1771,
      "jooti": 1772,
      "æmr": 1773,
      "æmæm": 1774,
      "æmev": 1775,
      "æmpal": 1776,
      "æmbæf": 1777,
      "æmnibl": 1778,
      "æmilip": 1779,
      "æmoroum": 1780,
      "dræs": 1781,
      "drbæk": 1782,
      "drizh": 1783,
      "drrir": 1784,
      "dréiv": 1785,
      "kloon": 1786,
      "klout": 1787,
      "klăp": 1788,
      "klæbing": 1789,
      "kllrr": 1790,
      "kloova": 1791,
      "klshlö": 1792,
      "kliltee": 1793,
      "uteree": 1794,
      "uteev": 1795,
      "utéien": 1796,
      "utoulee": 1797,
      "yoodnee": 1798,
      "yoohib": 1799,
      "yoonol": 1800,
      "yootă": 1801,
      "yoothint": 1802,
      "ălhæriks": 1803,
      "ăltent": 1804,
      "flæng": 1805,
      "fléik": 1806,
      "flaik": 1807,
      "floog": 1808,
      "floodzh": 1809,
      "flórrz": 1810,
      "flæmr": 1811,
      "igz": 1812,
      "igum": 1813,
      "igaiz": 1814,
      "igush": 1815,
      "oss": 1816,
      "oséili": 1817,
      "ætedee": 1818,
      "ætnakæn": 1819,
      "ólin": 1820,
      "ólbree": 1821,
      "ólzhim": 1822,
      "óland": 1823,
      "ints": 1824,
      "intlee": 1825,
      "intéin": 1826,
      "intstelt": 1827,
      "intawrm": 1828,
      "awdaiz": 1829,
      "awdinee": 1830,
      "awdimith": 1831,
      "awdides": 1832,
      "awsdee": 1833,
      "awsat": 1834,
      "awsfes": 1835,
      "awsints": 1836,
      "aitn": 1837,
      "aitaf": 1838,
      "aitnas": 1839,
      "asaws": 1840,
      "aszoo": 1841,
      "atiz": 1842,
      "atawrdzh": 1843,
      "ateesh": 1844,
      "atootum": 1845,
      "euvee": 1846,
      "eupiz": 1847,
      "eubeb": 1848,
      "omit": 1849,
      "omălee": 1850,
      "omoushypen": 1851,
      "ume": 1852,
      "uméitid": 1853,
      "umuraz": 1854,
      "usil": 1855,
      "usëvn": 1856,
      "usaitn": 1857,
      "ærinéit": 1858,
      "æratawrdzh": 1859,
      "awlsfë": 1860,
      "awtee": 1861,
      "awtid": 1862,
      "éileth": 1863,
      "stræf": 1864,
      "stréid": 1865,
      "stræsh": 1866,
      "stroost": 1867,
      "strsman": 1868,
      "strănva": 1869,
      "dzheeld": 1870,
      "uuz": 1871,
      "uuka": 1872,
      "æskæ": 1873,
      "æssree": 1874,
      "ónbawk": 1875,
      "ónfawt": 1876,
      "óndzhit": 1877,
      "óngrhr": 1878,
      "awmléi": 1879,
      "awmenot": 1880,
      "awmeubeb": 1881,
      "ængps": 1882,
      "amaing": 1883,
      "brou": 1884,
      "brim": 1885,
      "bring": 1886,
      "brzm": 1887,
      "broofæ": 1888,
      "briteth": 1889,
      "evuteree": 1890,
      "kwem": 1891,
      "kwins": 1892,
      "kwrn": 1893,
      "kweet": 1894,
      "kwængl": 1895,
      "kwerkw": 1896,
      "kwéileth": 1897,
      "neee": 1898,
      "neen": 1899,
      "neeans": 1900,
      "sep": 1901,
      "seprsh": 1902,
      "sefail": 1903,
      "sezap": 1904,
      "sebrou": 1905,
      "siéi": 1906,
      "sifawk": 1907,
      "sipeshon": 1908,
      "siautogain": 1909,
      "ërn": 1910,
      "ërtror": 1911,
      "ăkod": 1912,
      "ăksit": 1913,
      "aimul": 1914,
      "aimimel": 1915,
      "outæktra": 1916,
      "dhrt": 1917,
      "dhdeen": 1918,
      "dhaimul": 1919,
      "gku": 1920,
      "gkik": 1921,
      "gkal": 1922,
      "gkul": 1923,
      "gknem": 1924,
      "psentau": 1925,
      "soodiz": 1926,
      "soomas": 1927,
      "sooshéi": 1928,
      "soopsentau": 1929,
      "ămar": 1930,
      "ămidim": 1931,
      "ămpeee": 1932,
      "ămikinee": 1933,
      "aungku": 1934,
      "diikæg": 1935,
      "dileeis": 1936,
      "dioros": 1937,
      "ests": 1938,
      "estree": 1939,
      "estikr": 1940,
      "frk": 1941,
      "frn": 1942,
      "frestr": 1943,
      "frauk": 1944,
      "frængps": 1945,
      "fraungku": 1946,
      "haika": 1947,
      "haigór": 1948,
      "haidun": 1949,
      "haiwil": 1950,
      "haidréiv": 1951,
      "ipt": 1952,
      "ishn": 1953,
      "ishai": 1954,
      "ishil": 1955,
      "pléin": 1956,
      "plăst": 1957,
      "ploumee": 1958,
      "plesdo": 1959,
      "plusil": 1960,
      "rréiz": 1961,
      "rrniun": 1962,
      "rrimfon": 1963,
      "æfik": 1964,
      "æfsteeéili": 1965,
      "æga": 1966,
      "ægzem": 1967,
      "ægelf": 1968,
      "ótour": 1969,
      "inskà": 1970,
      "insnó": 1971,
      "insvera": 1972,
      "insplăst": 1973,
      "éikaid": 1974,
      "ookmal": 1975,
      "ooktótr": 1976,
      "oulm": 1977,
      "ăndob": 1978,
      "ăndaf": 1979,
      "ăndts": 1980,
      "ektain": 1981,
      "beun": 1982,
      "beleeænt": 1983,
      "befrauk": 1984,
      "bàiil": 1985,
      "bàvr": 1986,
      "bàshur": 1987,
      "bàshhór": 1988,
      "bàibil": 1989,
      "beevolee": 1990,
      "beeneee": 1991,
      "diszéi": 1992,
      "disfir": 1993,
      "diskul": 1994,
      "disaee": 1995,
      "feeos": 1996,
      "feekawr": 1997,
      "feeraing": 1998,
      "feehaiwil": 1999,
      "fendn": 2000,
      "fendalee": 2001,
      "fengwe": 2002,
      "glisee": 2003,
      "glāk": 2004,
      "glouyoo": 2005,
      "glækst": 2006,
      "glăkod": 2007,
      "ifid": 2008,
      "ifàf": 2009,
      "ifólbree": 2010,
      "kéiviu": 2011,
      "kænyoo": 2012,
      "kænfà": 2013,
      "kænng": 2014,
      "kænsekt": 2015,
      "loor": 2016,
      "loot": 2017,
      "loosee": 2018,
      "loodzhail": 2019,
      "minlets": 2020,
      "minigum": 2021,
      "meng": 2022,
      "menee": 2023,
      "menædzh": 2024,
      "menthawn": 2025,
      "slr": 2026,
      "slem": 2027,
      "slænt": 2028,
      "slyootă": 2029,
      "slótour": 2030,
      "sóz": 2031,
      "sódz": 2032,
      "sóbrim": 2033,
      "uunvee": 2034,
      "vees": 2035,
      "veezis": 2036,
      "ævviu": 2037,
      "æviai": 2038,
      "ineefinee": 2039,
      "awpadik": 2040,
      "awpitook": 2041,
      "éibéidr": 2042,
      "éibusëvn": 2043,
      "éiding": 2044,
      "ensel": 2045,
      "ensaws": 2046,
      "ensud": 2047,
      "ensnéit": 2048,
      "ensжь": 2049,
      "iksainetengs": 2050,
      "æntlu": 2051,
      "bieu": 2052,
      "bietith": 2053,
      "bierdo": 2054,
      "blt": 2055,
      "blist": 2056,
      "blăf": 2057,
      "blàbing": 2058,
      "bóm": 2059,
      "bóvent": 2060,
      "bóshouléit": 2061,
      "bóleedawm": 2062,
      "dinf": 2063,
      "dinæng": 2064,
      "dinëm": 2065,
      "dintriz": 2066,
      "efool": 2067,
      "efshin": 2068,
      "hrjoo": 2069,
      "idzhus": 2070,
      "katshou": 2071,
      "koukm": 2072,
      "koushos": 2073,
      "mrtsh": 2074,
      "meelz": 2075,
      "meenun": 2076,
      "obéis": 2077,
      "pinop": 2078,
      "pinwædzh": 2079,
      "pinawrisdéit": 2080,
      "pawdzhou": 2081,
      "pawfo": 2082,
      "péiz": 2083,
      "péimin": 2084,
      "péistl": 2085,
      "pendzh": 2086,
      "penes": 2087,
      "penish": 2088,
      "pizik": 2089,
      "rnetshoo": 2090,
      "rtæn": 2091,
      "rtyan": 2092,
      "sinyoo": 2093,
      "sizeem": 2094,
      "tufelee": 2095,
      "tuàree": 2096,
      "tuemint": 2097,
      "teel": 2098,
      "teekéiviu": 2099,
      "ubam": 2100,
      "ubsooæ": 2101,
      "ureebietith": 2102,
      "wedee": 2103,
      "wëmee": 2104,
      "wëfa": 2105,
      "wëfeeos": 2106,
      "æleeint": 2107,
      "ăbik": 2108,
      "ăptrænj": 2109,
      "eeti": 2110,
      "eetawb": 2111,
      "shoomiu": 2112,
      "aikoozh": 2113,
      "aikăndts": 2114,
      "ounfaw": 2115,
      "untau": 2116,
      "untawpadik": 2117,
      "àntree": 2118,
      "àntenshee": 2119,
      "afree": 2120,
      "auléishon": 2121,
      "aulawdinee": 2122,
      "bleen": 2123,
      "bleeziu": 2124,
      "bimuree": 2125,
      "bimlit": 2126,
      "bimădzhou": 2127,
      "borunot": 2128,
      "dngm": 2129,
      "dnoosau": 2130,
      "dodrizh": 2131,
      "dëde": 2132,
      "dëlz": 2133,
      "dëtilee": 2134,
      "dikuree": 2135,
      "dimour": 2136,
      "dimdree": 2137,
      "dimzzh": 2138,
      "dingku": 2139,
      "dingshópkéit": 2140,
      "dingkatshou": 2141,
      "didimel": 2142,
      "ezeu": 2143,
      "fàith": 2144,
      "fàbieu": 2145,
      "iees": 2146,
      "ieenee": 2147,
      "ieeækstéik": 2148,
      "kóree": 2149,
      "keniun": 2150,
      "kenórviiz": 2151,
      "kreen": 2152,
      "livlæng": 2153,
      "livitawk": 2154,
      "livigz": 2155,
      "mió": 2156,
      "miezeu": 2157,
      "mikshur": 2158,
      "mikàil": 2159,
      "mikawsh": 2160,
      "mivale": 2161,
      "mivko": 2162,
      "mivishn": 2163,
      "malis": 2164,
      "manrar": 2165,
      "mældir": 2166,
      "mælimist": 2167,
      "mælentz": 2168,
      "nórtr": 2169,
      "nórljut": 2170,
      "odent": 2171,
      "okil": 2172,
      "okainr": 2173,
      "oves": 2174,
      "ovir": 2175,
      "poor": 2176,
      "poolti": 2177,
      "pæltee": 2178,
      "pælirsoo": 2179,
      "pælaszoo": 2180,
      "rouvr": 2181,
      "routhing": 2182,
      "speks": 2183,
      "spaitaf": 2184,
      "sæsee": 2185,
      "sædhrt": 2186,
      "sitfedzhee": 2187,
      "sitóth": 2188,
      "sivrz": 2189,
      "sivitri": 2190,
      "sànintr": 2191,
      "sànsis": 2192,
      "sànædh": 2193,
      "saninfëm": 2194,
      "saudd": 2195,
      "sólbu": 2196,
      "udkiu": 2197,
      "ufkiree": 2198,
      "uféishkeu": 2199,
      "wórm": 2200,
      "wórnt": 2201,
      "wórzgr": 2202,
      "yufeeraing": 2203,
      "zéizou": 2204,
      "àlbóm": 2205,
      "ædiveos": 2206,
      "ædestree": 2207,
      "æshn": 2208,
      "æpsóed": 2209,
      "ëmetip": 2210,
      "indout": 2211,
      "indzhălhæriks": 2212,
      "intrawd": 2213,
      "awbjootu": 2214,
      "awfizh": 2215,
      "oukee": 2216,
      "oukăbik": 2217,
      "ourloor": 2218,
      "dzhengkul": 2219,
      "dzhouneen": 2220,
      "undaiiz": 2221,
      "thiléieeen": 2222,
      "igskrait": 2223,
      "astout": 2224,
      "asthun": 2225,
      "bafloodzh": 2226,
      "bningkoz": 2227,
      "bupky": 2228,
      "béimi": 2229,
      "boosà": 2230,
      "bengm": 2231,
      "bækesunom": 2232,
      "bæltbawr": 2233,
      "bælshil": 2234,
      "benting": 2235,
      "bălinim": 2236,
      "chaul": 2237,
      "chly": 2238,
      "ckhaidréiv": 2239,
      "detreu": 2240,
      "denik": 2241,
      "denent": 2242,
      "dawmitæm": 2243,
      "estrow": 2244,
      "faivé": 2245,
      "faibleen": 2246,
      "fitshër": 2247,
      "fórs": 2248,
      "fórdp": 2249,
      "firais": 2250,
      "færa": 2251,
      "fipætee": 2252,
      "fipawtid": 2253,
      "goupid": 2254,
      "gænsiz": 2255,
      "gændzhim": 2256,
      "górume": 2257,
      "gæld": 2258,
      "gælv": 2259,
      "hyéir": 2260,
      "hyumuraz": 2261,
      "hooiez": 2262,
      "hoojid": 2263,
      "hiti": 2264,
      "hisesàn": 2265,
      "hisklshlö": 2266,
      "hăntoo": 2267,
      "hăndeenee": 2268,
      "hawsisr": 2269,
      "hawsloosee": 2270,
      "hawmprist": 2271,
      "hawmifid": 2272,
      "iyr": 2273,
      "kuleegol": 2274,
      "kyéit": 2275,
      "kàrist": 2276,
      "kénale": 2277,
      "kérdzhen": 2278,
      "kăgkal": 2279,
      "kisaulawdinee": 2280,
      "kivëth": 2281,
      "kórbee": 2282,
      "kórld": 2283,
      "kælansin": 2284,
      "kyooz": 2285,
      "kyoovir": 2286,
      "kawliz": 2287,
      "kawlipt": 2288,
      "koutaw": 2289,
      "koutnn": 2290,
      "logh": 2291,
      "lokrit": 2292,
      "lëz": 2293,
      "lityufeeraing": 2294,
      "mawdzhæn": 2295,
      "mawgrlis": 2296,
      "maio": 2297,
      "maiwrz": 2298,
      "moudól": 2299,
      "mousken": 2300,
      "mitluu": 2301,
      "mingk": 2302,
      "monælee": 2303,
      "mănéi": 2304,
      "mërs": 2305,
      "mërkeniun": 2306,
      "neflet": 2307,
      "neoome": 2308,
      "nzit": 2309,
      "naiesou": 2310,
      "noukræn": 2311,
      "nousep": 2312,
      "nesmund": 2313,
      "néitee": 2314,
      "nemflet": 2315,
      "noumaréishun": 2316,
      "noumæga": 2317,
      "noonuu": 2318,
      "noontzh": 2319,
      "pyenan": 2320,
      "pëk": 2321,
      "pădzhree": 2322,
      "pleesee": 2323,
      "pleegee": 2324,
      "pànjlee": 2325,
      "pàniupin": 2326,
      "petshen": 2327,
      "petyun": 2328,
      "palookmal": 2329,
      "pulik": 2330,
      "puletik": 2331,
      "parawk": 2332,
      "parăksit": 2333,
      "putunt": 2334,
      "putyau": 2335,
      "pawmigaiz": 2336,
      "pegoree": 2337,
      "pegalz": 2338,
      "rodi": 2339,
      "raigol": 2340,
      "raitshum": 2341,
      "rivaridhil": 2342,
      "risthoon": 2343,
      "sjk": 2344,
      "sendee": 2345,
      "senoukrit": 2346,
      "souv": 2347,
      "souz": 2348,
      "sikól": 2349,
      "sikyul": 2350,
      "sæntsh": 2351,
      "sænstréid": 2352,
      "sækunóish": 2353,
      "sawlrăng": 2354,
      "sàmblee": 2355,
      "sàmhait": 2356,
      "tănrv": 2357,
      "tăngkik": 2358,
      "uzz": 2359,
      "vimhiu": 2360,
      "wăg": 2361,
      "wălee": 2362,
      "waiul": 2363,
      "waisiz": 2364,
      "witămpeee": 2365,
      "wivz": 2366,
      "wivyul": 2367,
      "zinik": 2368,
      "zinæksait": 2369,
      "zeninæng": 2370,
      "zenmalis": 2371,
      "æreeun": 2372,
      "æreeneeans": 2373,
      "ëshin": 2374,
      "ósteeën": 2375,
      "ăgolawl": 2376,
      "ăgolesee": 2377,
      "inmawrt": 2378,
      "inmăndaf": 2379,
      "éizing": 2380,
      "oouulus": 2381,
      "shierot": 2382,
      "shàltin": 2383,
      "shàltz": 2384,
      "enatræt": 2385,
      "stetil": 2386,
      "stéikareun": 2387,
      "dzhrlee": 2388,
      "reekuun": 2389,
      "reekólin": 2390,
      "reekouhyéir": 2391,
      "ændwăk": 2392,
      "ænjubam": 2393,
      "ænkëst": 2394,
      "ænkawsfes": 2395,
      "leekuuz": 2396,
      "onhom": 2397,
      "onheree": 2398,
      "prawpeestet": 2399,
      "prawblist": 2400,
      "prshdhdeen": 2401,
      "àndaw": 2402,
      "awrtàpisee": 2403,
      "eromawt": 2404,
      "groubee": 2405,
      "idimæleeint": 2406,
      "krænlivitawk": 2407,
      "kraiméishun": 2408,
      "kraimămidim": 2409,
      "arrawkuz": 2410,
      "thrisish": 2411,
      "thrishil": 2412,
      "peeeur": 2413,
      "peele": 2414,
      "ălepeel": 2415,
      "brostetil": 2416,
      "bropeele": 2417,
      "ăkoóland": 2418,
      "ăktefool": 2419,
      "sooæi": 2420,
      "ouléiti": 2421,
      "bebsin": 2422,
      "sóft": 2423,
      "sófel": 2424,
      "ævenbn": 2425,
      "mrkrootawz": 2426,
      "mrkrëmetip": 2427,
      "pawgetinon": 2428,
      "pawgéishul": 2429,
      "kósiræsh": 2430,
      "abdgh": 2431,
      "adaier": 2432,
      "agoree": 2433,
      "aanastout": 2434,
      "akrd": 2435,
      "adeet": 2436,
      "abortman": 2437,
      "bsuunvee": 2438,
      "béz": 2439,
      "bouplusil": 2440,
      "bændis": 2441,
      "bisp": 2442,
      "bilyur": 2443,
      "besætr": 2444,
      "bànsiéi": 2445,
      "betnr": 2446,
      "bernăst": 2447,
      "btsheev": 2448,
      "bawskwerkw": 2449,
      "bevóm": 2450,
      "bërbik": 2451,
      "boulel": 2452,
      "băbiris": 2453,
      "băsta": 2454,
      "bindzhil": 2455,
      "bouking": 2456,
      "byandéin": 2457,
      "balawzéip": 2458,
      "bawndos": 2459,
      "dtéishl": 2460,
      "dyatiz": 2461,
      "dàikalee": 2462,
      "dæntshu": 2463,
      "divësh": 2464,
      "dawrkilee": 2465,
      "derikón": 2466,
      "delbevóm": 2467,
      "daribrain": 2468,
      "dælobee": 2469,
      "dibaitnas": 2470,
      "doléi": 2471,
      "dainiz": 2472,
      "distiz": 2473,
      "digree": 2474,
      "dætivór": 2475,
      "devăltent": 2476,
      "dămae": 2477,
      "destau": 2478,
      "dektæs": 2479,
      "dawpimæb": 2480,
      "déibung": 2481,
      "dailidaien": 2482,
      "daikif": 2483,
      "digsiuwéil": 2484,
      "ehawt": 2485,
      "edrvh": 2486,
      "edha": 2487,
      "fuvo": 2488,
      "fænoséili": 2489,
      "funk": 2490,
      "fivin": 2491,
      "fizree": 2492,
      "fawrd": 2493,
      "féitistaian": 2494,
      "ferree": 2495,
      "fănsee": 2496,
      "faukree": 2497,
      "foroor": 2498,
      "fawdoree": 2499,
      "fóndinf": 2500,
      "fevrtæn": 2501,
      "féiniv": 2502,
      "foulemont": 2503,
      "făndau": 2504,
      "foreegoupid": 2505,
      "fæstusaitn": 2506,
      "fàntsikól": 2507,
      "fæptt": 2508,
      "filonjw": 2509,
      "gwasaws": 2510,
      "gægrgælee": 2511,
      "gitërtror": 2512,
      "gàngbawk": 2513,
      "gækor": 2514,
      "garawras": 2515,
      "gawkkéi": 2516,
      "gawdin": 2517,
      "geukæt": 2518,
      "gæsikufl": 2519,
      "gængveezis": 2520,
      "gubăktefool": 2521,
      "gbéislem": 2522,
      "gpider": 2523,
      "getresee": 2524,
      "hjuféishkeu": 2525,
      "hochly": 2526,
      "huërn": 2527,
      "hædrbæk": 2528,
      "hænur": 2529,
      "himætshu": 2530,
      "haupeeeur": 2531,
      "henturam": 2532,
      "houmol": 2533,
      "hektibéi": 2534,
      "hloopiz": 2535,
      "heflee": 2536,
      "hæpsul": 2537,
      "hindéikaid": 2538,
      "hintrz": 2539,
      "hótrunes": 2540,
      "hikalo": 2541,
      "hawrdzhodent": 2542,
      "jóro": 2543,
      "jawngk": 2544,
      "jozouléiti": 2545,
      "jialp": 2546,
      "kawtrsee": 2547,
      "kingaim": 2548,
      "kalood": 2549,
      "kerën": 2550,
      "kaumió": 2551,
      "kekwălee": 2552,
      "kolóin": 2553,
      "koréidzh": 2554,
      "kisteree": 2555,
      "kæmomălee": 2556,
      "kawnpawgéishul": 2557,
      "kawdistéid": 2558,
      "katu": 2559,
      "kawtin": 2560,
      "kæsinz": 2561,
      "koonriz": 2562,
      "kaimivraz": 2563,
      "kotoo": 2564,
      "koulbin": 2565,
      "kănduuka": 2566,
      "kàntyon": 2567,
      "kæponhom": 2568,
      "kairpeen": 2569,
      "kikréit": 2570,
      "kjoopeebesætr": 2571,
      "keckhb": 2572,
      "lousing": 2573,
      "likus": 2574,
      "limounfaw": 2575,
      "lesiu": 2576,
      "lækwoo": 2577,
      "lemnaun": 2578,
      "lawnistee": 2579,
      "léiling": 2580,
      "læsuntawpadik": 2581,
      "leve": 2582,
      "legon": 2583,
      "lrnspee": 2584,
      "lókmin": 2585,
      "lepósee": 2586,
      "lætruree": 2587,
      "laire": 2588,
      "laukzhiz": 2589,
      "mwureebietith": 2590,
      "mătufelee": 2591,
      "moolivigz": 2592,
      "mænyoothint": 2593,
      "mórtshawt": 2594,
      "màngou": 2595,
      "méitsi": 2596,
      "merilas": 2597,
      "morensel": 2598,
      "mutfe": 2599,
      "myoopiit": 2600,
      "măltran": 2601,
      "mawnstæn": 2602,
      "mawséiting": 2603,
      "mærilus": 2604,
      "mawlateesh": 2605,
      "moontreekou": 2606,
      "maunifàf": 2607,
      "mæfàst": 2608,
      "mótee": 2609,
      "muungknem": 2610,
      "mefõmee": 2611,
      "mounist": 2612,
      "mokămikinee": 2613,
      "mboofee": 2614,
      "mjougat": 2615,
      "nawenoz": 2616,
      "nækerisimee": 2617,
      "niudzhee": 2618,
      "nawdi": 2619,
      "nusskee": 2620,
      "nawtud": 2621,
      "nipivee": 2622,
      "nedeupiz": 2623,
      "nyuursaun": 2624,
      "nókstist": 2625,
      "noozimoost": 2626,
      "njuléitik": 2627,
      "opsisme": 2628,
      "pimgarawras": 2629,
      "pilidiu": 2630,
      "pórbring": 2631,
      "pesibóris": 2632,
      "pawrdid": 2633,
      "pirànind": 2634,
      "pawsamaing": 2635,
      "peupee": 2636,
      "pæros": 2637,
      "pawtgăb": 2638,
      "përsin": 2639,
      "pămimat": 2640,
      "pestivar": 2641,
      "paizkikréit": 2642,
      "pæstans": 2643,
      "pæntóing": 2644,
      "pwësfit": 2645,
      "pouning": 2646,
      "puutgréid": 2647,
      "póstufkiree": 2648,
      "paisimăn": 2649,
      "pændawz": 2650,
      "păngnórtr": 2651,
      "piarlee": 2652,
      "ràuntau": 2653,
      "rói": 2654,
      "renjoo": 2655,
      "rreenjuléitik": 2656,
      "relhawmifid": 2657,
      "ridee": 2658,
      "rektrl": 2659,
      "remyór": 2660,
      "rălen": 2661,
      "rigeenee": 2662,
      "rusikal": 2663,
      "ruufen": 2664,
      "réines": 2665,
      "rileemiezeu": 2666,
      "ræpsee": 2667,
      "rhitawk": 2668,
      "rkéishlsjk": 2669,
      "swinree": 2670,
      "séigi": 2671,
      "saipă": 2672,
      "sawrhaika": 2673,
      "saritem": 2674,
      "sekăf": 2675,
      "siblee": 2676,
      "soriees": 2677,
      "sjoon": 2678,
      "sæmbait": 2679,
      "seuitur": 2680,
      "somuiris": 2681,
      "ssedh": 2682,
      "séino": 2683,
      "saimóndzhit": 2684,
      "saizos": 2685,
      "srnjoodzhee": 2686,
      "srtehawt": 2687,
      "skăgpider": 2688,
      "seltawsdee": 2689,
      "semeea": 2690,
      "tawishai": 2691,
      "taizher": 2692,
      "tenikul": 2693,
      "touuneeo": 2694,
      "tesilon": 2695,
      "tànitin": 2696,
      "telfórdp": 2697,
      "taréibéidr": 2698,
      "taineréish": 2699,
      "tjooroou": 2700,
      "tærurót": 2701,
      "toonins": 2702,
      "téikoe": 2703,
      "tweil": 2704,
      "tàmt": 2705,
      "tókidzhus": 2706,
      "tdoobor": 2707,
      "tjuéishob": 2708,
      "ustshis": 2709,
      "vilzbul": 2710,
      "vawrlokrit": 2711,
      "velaraid": 2712,
      "vawnsitóth": 2713,
      "vætun": 2714,
      "vintirit": 2715,
      "vawlpiz": 2716,
      "vërs": 2717,
      "véidzhoree": 2718,
      "wespr": 2719,
      "wànektain": 2720,
      "wizăài": 2721,
      "walekshob": 2722,
      "weru": 2723,
      "wawkez": 2724,
      "wăldzhrlee": 2725,
      "wawlmoudól": 2726,
      "wrrooktótr": 2727,
      "waizoouulus": 2728,
      "wéibnt": 2729,
      "wéidiz": 2730,
      "wiyelit": 2731,
      "wibliuhai": 2732,
      "wrneeăngk": 2733,
      "ynlëee": 2734,
      "zaunisd": 2735,
      "zægolee": 2736,
      "zkivn": 2737,
      "zævenéit": 2738,
      "àgrrkéishlsjk": 2739,
      "àpyunawf": 2740,
      "àtstsifawk": 2741,
      "æseent": 2742,
      "æpledha": 2743,
      "éónshuit": 2744,
      "óitonis": 2745,
      "ăreeunt": 2746,
      "ăgro": 2747,
      "ăpsaiorz": 2748,
      "ăvimnai": 2749,
      "ădalindzh": 2750,
      "eeawstoz": 2751,
      "eekagree": 2752,
      "eeéidrou": 2753,
      "eemóomit": 2754,
      "eewundoukăbik": 2755,
      "inendzhom": 2756,
      "inzhiver": 2757,
      "indraiit": 2758,
      "insishun": 2759,
      "ininzr": 2760,
      "ineoynlëee": 2761,
      "inhătabdgh": 2762,
      "innthéis": 2763,
      "invænaanastout": 2764,
      "awilub": 2765,
      "awprilas": 2766,
      "awàndzhos": 2767,
      "awthiliéil": 2768,
      "awwitidzh": 2769,
      "éistalee": 2770,
      "éiæbyedzhee": 2771,
      "oodhee": 2772,
      "oosædzhik": 2773,
      "shaud": 2774,
      "shælas": 2775,
      "shóltenikul": 2776,
      "shomiit": 2777,
      "shmendrrir": 2778,
      "shawpu": 2779,
      "shëgresee": 2780,
      "aigren": 2781,
      "aiăktuemint": 2782,
      "aidzhenng": 2783,
      "enurooeshen": 2784,
      "enæsdemee": 2785,
      "oubigsutéien": 2786,
      "ouzibainee": 2787,
      "zhelam": 2788,
      "dzhórooait": 2789,
      "dzhesurru": 2790,
      "dzhetee": 2791,
      "dzhæking": 2792,
      "dzhemik": 2793,
      "dzholàiz": 2794,
      "dzhæbalmó": 2795,
      "dzhéiletéit": 2796,
      "dzhoong": 2797,
      "ikdonee": 2798,
      "ænklæt": 2799,
      "ænsautouuneeo": 2800,
      "ænufoléishon": 2801,
      "ænstousant": 2802,
      "undrmféi": 2803,
      "itainmăb": 2804,
      "itdenteee": 2805,
      "isektim": 2806,
      "isbuuthulee": 2807,
      "leeamot": 2808,
      "leenórborunot": 2809,
      "leezuunausi": 2810,
      "imepdzholàiz": 2811,
      "imtoodoléi": 2812,
      "imaistribro": 2813,
      "inghălæl": 2814,
      "trentokainr": 2815,
      "trounets": 2816,
      "trigelan": 2817,
      "trrestid": 2818,
      "tryutéizing": 2819,
      "tréiibtjuéishob": 2820,
      "trimifjoo": 2821,
      "ivopit": 2822,
      "órolækdiks": 2823,
      "órzéiv": 2824,
      "órdkælzmal": 2825,
      "órnetshi": 2826,
      "órsnitshmendrrir": 2827,
      "onshood": 2828,
      "presintstelt": 2829,
      "prawrper": 2830,
      "preksee": 2831,
      "prklit": 2832,
      "prăliv": 2833,
      "præring": 2834,
      "præsourloor": 2835,
      "próntàmt": 2836,
      "prireenas": 2837,
      "prawntinisee": 2838,
      "prrànzeninæng": 2839,
      "préimbentsait": 2840,
      "ànizitik": 2841,
      "àntshawthiliéil": 2842,
      "ànpoogórume": 2843,
      "ànsawlsee": 2844,
      "àntrikoumakrd": 2845,
      "ethru": 2846,
      "etmaidlam": 2847,
      "alănee": 2848,
      "awrshoobeun": 2849,
      "awrovint": 2850,
      "awrgonpoor": 2851,
      "eredon": 2852,
      "anàidzhéishuth": 2853,
      "elklæd": 2854,
      "grekanàidzhéishuth": 2855,
      "grainæseent": 2856,
      "grookis": 2857,
      "grăpwalekshob": 2858,
      "grdikéitn": 2859,
      "gràminst": 2860,
      "idéinent": 2861,
      "krutlegon": 2862,
      "krætidéit": 2863,
      "krængkev": 2864,
      "kræstik": 2865,
      "ækseputunt": 2866,
      "ækjolos": 2867,
      "ækséilaid": 2868,
      "ănardngm": 2869,
      "arseul": 2870,
      "arentrenæsdemee": 2871,
      "deeiumit": 2872,
      "deeireefin": 2873,
      "deehwon": 2874,
      "deejakefshin": 2875,
      "ekspreekuun": 2876,
      "seepëst": 2877,
      "seeiteezmælee": 2878,
      "emasunje": 2879,
      "embenou": 2880,
      "thauntdoobor": 2881,
      "thaiænarseul": 2882,
      "tshawngbéislem": 2883,
      "tshægpegoree": 2884,
      "tsheetwórm": 2885,
      "tshentrmërs": 2886,
      "urevjialp": 2887,
      "peeæstigel": 2888,
      "peegreeests": 2889,
      "ældeeævet": 2890,
      "ibætin": 2891,
      "ibwesh": 2892,
      "olrdzheeā": 2893,
      "orookeezh": 2894,
      "awksanmr": 2895,
      "entzhălæviai": 2896,
      "ainsóling": 2897,
      "æbflawb": 2898,
      "æbumból": 2899,
      "æbrrhéitin": 2900,
      "æbsingikdonee": 2901,
      "æbtumeeawstoz": 2902,
      "æbdéishing": 2903,
      "æbimekto": 2904,
      "joomontuàree": 2905,
      "jootiek": 2906,
      "æmæmeeéidrou": 2907,
      "æmeveeti": 2908,
      "æmpaléiding": 2909,
      "æmbæftur": 2910,
      "æmilipieenee": 2911,
      "æmoroumin": 2912,
      "dræsudkiu": 2913,
      "kloond": 2914,
      "kloutauféil": 2915,
      "klăperom": 2916,
      "kllrrdingshópkéit": 2917,
      "kloovaonshood": 2918,
      "uteevul": 2919,
      "yoohibird": 2920,
      "flængts": 2921,
      "fléikăko": 2922,
      "flaiksdeen": 2923,
      "igushleeamot": 2924,
      "ólzhimin": 2925,
      "intéindz": 2926,
      "awdaizzir": 2927,
      "awdimithpleegee": 2928,
      "awsatéi": 2929,
      "euveekawtin": 2930,
      "omoushypend": 2931,
      "ærinéitiv": 2932,
      "æratawrdzhiz": 2933,
      "awlsfëgænsiz": 2934,
      "stræfod": 2935,
      "stræshineoynlëee": 2936,
      "stroostisa": 2937,
      "æskædeeem": 2938,
      "æssreezkivn": 2939,
      "ónbawku": 2940,
      "óngrhrшf": 2941,
      "awmenoto": 2942,
      "brzmăst": 2943,
      "broofæz": 2944,
      "britethul": 2945,
      "evutereeustshis": 2946,
      "kwrndzhee": 2947,
      "kweetawtee": 2948,
      "kwængli": 2949,
      "seprshasthun": 2950,
      "sefaild": 2951,
      "sezapólzhimin": 2952,
      "aimimeles": 2953,
      "soomasaigren": 2954,
      "diikægun": 2955,
      "estikrpyenan": 2956,
      "haidunz": 2957,
      "ploumeez": 2958,
      "plesdovee": 2959,
      "rréizi": 2960,
      "rrniuns": 2961,
      "æfsteeéiliinü": 2962,
      "ægzembsuunvee": 2963,
      "inskàr": 2964,
      "insnóinee": 2965,
      "insverael": 2966,
      "insplăstiv": 2967,
      "ăndobæreeun": 2968,
      "bàvrblt": 2969,
      "bàshuril": 2970,
      "bàshhóry": 2971,
      "diszéir": 2972,
      "disfirot": 2973,
      "feehaiwilin": 2974,
      "fengweor": 2975,
      "gliseel": 2976,
      "glouyooz": 2977,
      "glăkodă": 2978,
      "kænfàsiz": 2979,
      "kænngvërs": 2980,
      "kænsektam": 2981,
      "menædzhekeesj": 2982,
      "menthawniv": 2983,
      "slæntæm": 2984,
      "slyootădid": 2985,
      "slótouréishr": 2986,
      "ævviuving": 2987,
      "ineefineeol": 2988,
      "awpitookawd": 2989,
      "ensжьórsh": 2990,
      "æntlushon": 2991,
      "bierdoféitistaian": 2992,
      "blăfokil": 2993,
      "bóventn": 2994,
      "dinëmimee": 2995,
      "koukmækt": 2996,
      "koushosal": 2997,
      "meenunisur": 2998,
      "obéisam": 2999,
      "pinopik": 3000,
      "pinwædzhanist": 3001,
      "rnetshooz": 3002,
      "ubsooæeein": 3003,
      "ăptrænjes": 3004,
      "eetawban": 3005,
      "aikoozho": 3006,
      "àntensheeou": 3007,
      "bimlitee": 3008,
      "dnoosausól": 3009,
      "dodrizhan": 3010,
      "dimourawrsa": 3011,
      "dimdreeeorz": 3012,
      "dimzzhiyr": 3013,
      "dingkudzhesurru": 3014,
      "didimeloss": 3015,
      "fàithtrikt": 3016,
      "ieeækstéikal": 3017,
      "kenórviizon": 3018,
      "livlængnes": 3019,
      "mikàilimon": 3020,
      "mikawshn": 3021,
      "mivkofoulemont": 3022,
      "manrarikt": 3023,
      "mældiréishen": 3024,
      "nórljutoo": 3025,
      "pælirsootin": 3026,
      "pælaszoovëd": 3027,
      "spaitafuut": 3028,
      "sitfedzheeon": 3029,
      "sànintràn": 3030,
      "sànsisawkirum": 3031,
      "sànædhentzhălæviai": 3032,
      "saninfëmus": 3033,
      "wórzgraiz": 3034,
      "awbjootudzhoong": 3035,
      "awfizhæk": 3036,
      "undaiizi": 3037,
      "igskraitoulm": 3038,
      "bafloodzhe": 3039,
      "bupkyór": 3040,
      "boosàd": 3041,
      "bengmórnetshi": 3042,
      "bækesunomee": 3043,
      "bæltbawrdr": 3044,
      "bælshildeeon": 3045,
      "detreuthiléieeen": 3046,
      "dawmitæmis": 3047,
      "estrowek": 3048,
      "faivéint": 3049,
      "fipæteeis": 3050,
      "gændzhiméikr": 3051,
      "hooieznul": 3052,
      "hoojidëshin": 3053,
      "hisesàninghălæl": 3054,
      "hisklshlös": 3055,
      "hawmpristik": 3056,
      "kivëthitainmăb": 3057,
      "kælansinshoomiu": 3058,
      "mouskend": 3059,
      "nefletur": 3060,
      "neoomeéónshuit": 3061,
      "noukrænoves": 3062,
      "nemfletéishon": 3063,
      "noontzhawr": 3064,
      "pădzhreeawf": 3065,
      "pànjleeseeiteezmælee": 3066,
      "pàniupindenik": 3067,
      "parăksitéit": 3068,
      "putyausing": 3069,
      "senoukritàntensheeou": 3070,
      "sikyulis": 3071,
      "sænstréidiv": 3072,
      "sawlrănglee": 3073,
      "tănrvfaukree": 3074,
      "vimhiugir": 3075,
      "wivyulat": 3076,
      "ósteeënis": 3077,
      "inmawrtemasunje": 3078,
      "inmăndafail": 3079,
      "enatrætikt": 3080,
      "ændwăks": 3081,
      "ænkëstena": 3082,
      "ænkawsfesdyatiz": 3083,
      "prawpeestetee": 3084,
      "awrtàpiseegrou": 3085,
      "krænlivitawkshon": 3086,
      "arrawkuzidzhee": 3087,
      "thrisishul": 3088,
      "mrkrootawzee": 3089,
      "kósiræshuméitid": 3090,
      "adaierlont": 3091,
      "abortmant": 3092,
      "bilyurin": 3093,
      "betnruun": 3094,
      "bernăstarrawkuzidzhee": 3095,
      "bawskwerkwyoo": 3096,
      "byandéinis": 3097,
      "dælobeenuu": 3098,
      "dawpimæbibæen": 3099,
      "fænoséiliashee": 3100,
      "fæpttil": 3101,
      "filonjwămar": 3102,
      "gægrgæleeo": 3103,
      "gitërtroreridzh": 3104,
      "gàngbawkk": 3105,
      "gæsikuflæshn": 3106,
      "gængveezisou": 3107,
      "hjuféishkeup": 3108,
      "henturaméishun": 3109,
      "hótrunesaree": 3110,
      "kawtrseenzit": 3111,
      "kæmomăleelaid": 3112,
      "koonrizauléishon": 3113,
      "kănduukaks": 3114,
      "kàntyonrtyan": 3115,
      "limounfawkræstik": 3116,
      "lækwootheenz": 3117,
      "lemnaunawrovint": 3118,
      "læsuntawpadikol": 3119,
      "lrnspeeseltawsdee": 3120,
      "mwureebietithàk": 3121,
      "mænyoothintarr": 3122,
      "mórtshawtree": 3123,
      "myoopiiting": 3124,
      "măltranz": 3125,
      "mawnstændzhr": 3126,
      "mawlateeshouzibainee": 3127,
      "moontreekoustl": 3128,
      "mæfàsto": 3129,
      "muungknemuzz": 3130,
      "mefõmeen": 3131,
      "nedeupizn": 3132,
      "pimgarawrasis": 3133,
      "pilidiuii": 3134,
      "pestivarait": 3135,
      "pæntóingz": 3136,
      "póstufkireeiil": 3137,
      "paisimănedzhee": 3138,
      "remyórelinent": 3139,
      "rigeeneeum": 3140,
      "taizherb": 3141,
      "taineréishtun": 3142,
      "vilzbulawd": 3143,
      "wrrooktótroodhee": 3144,
      "wibliuhais": 3145,
      "wrneeăngkenurooeshen": 3146,
      "àpyunawfin": 3147,
      "àtstsifawkteel": 3148,
      "inzhiverrói": 3149,
      "indraiitedrvh": 3150,
      "insishuns": 3151,
      "inhătabdghl": 3152,
      "awàndzhoskéi": 3153,
      "dzhæbalmóiz": 3154,
      "leezuunausiat": 3155,
      "tréiibtjuéishobak": 3156,
      "órsnitshmendrrirai": 3157,
      "prrànzeninængzee": 3158,
      "grekanàidzhéishuthural": 3159,
      "ănardngmót": 3160,
      "dræsudkiuzhelam": 3161,
      "seprshasthunawn": 3162,
      "estikrpyenanil": 3163,
      "mivkofoulemontlee": 3164,
      "neoomeéónshuitjozouléiti": 3165
    },
    "merges": [
      "e e",
      "i n",
      "a w",
      "é i",
      "o o",
      "s h",
      "a i",
      "e n",
      "o u",
      "s t",
      "z h",
      "d zh",
      "r ee",
      "i k",
      "æ n",
      "u n",
      "i t",
      "i s",
      "l ee",
      "i m",
      "in g",
      "i l",
      "t r",
      "i v",
      "ó r",
      "o n",
      "p r",
      "e s",
      "à n",
      "e t",
      "i z",
      "a l",
      "u l",
      "aw r",
      "éi t",
      "e r",
      "a n",
      "e l",
      "g r",
      "i d",
      "k r",
      "æ k",
      "ă n",
      "a r",
      "a u",
      "d ee",
      "e k",
      "s ee",
      "e m",
      "t h",
      "t sh",
      "u r",
      "i r",
      "p ee",
      "æ l",
      "éi sh",
      "i b",
      "o l",
      "o r",
      "aw k",
      "en t",
      "a in",
      "æ b",
      "i u",
      "i st",
      "j oo",
      "æ m",
      "d r",
      "k l",
      "u t",
      "y oo",
      "ă l",
      "aw n",
      "f l",
      "i g",
      "o s",
      "æ t",
      "ó l",
      "in t",
      "aw d",
      "aw s",
      "ai t",
      "a s",
      "a t",
      "e u",
      "o m",
      "u m",
      "u s",
      "æ r",
      "aw l",
      "aw t",
      "éi l",
      "st r",
      "dzh ee",
      "u u",
      "æ s",
      "ó n",
      "aw m",
      "ou m",
      "æn g",
      "a m",
      "b r",
      "e v",
      "k w",
      "n ee",
      "s e",
      "s i",
      "é in",
      "ë r",
      "ă k",
      "oo n",
      "ai m",
      "ou t",
      "d h",
      "g k",
      "p s",
      "s oo",
      "ă m",
      "a un",
      "d i",
      "e st",
      "f r",
      "h ai",
      "i p",
      "i sh",
      "o t",
      "p l",
      "r r",
      "t in",
      "æ f",
      "æ g",
      "ó t",
      "in s",
      "éi k",
      "oo k",
      "ai z",
      "ou l",
      "ăn d",
      "ek t",
      "b e",
      "b à",
      "b ee",
      "d is",
      "e g",
      "f ee",
      "f en",
      "g l",
      "i f",
      "k éi",
      "k æn",
      "l oo",
      "m in",
      "m en",
      "o ree",
      "s l",
      "s ó",
      "u un",
      "v ee",
      "æ v",
      "æ st",
      "in ee",
      "aw p",
      "aw z",
      "éi b",
      "éi d",
      "ai d",
      "ai l",
      "en s",
      "ik s",
      "æn t",
      "b i",
      "b l",
      "b ó",
      "d in",
      "e f",
      "e dzhee",
      "g ol",
      "h r",
      "i dzh",
      "i lee",
      "k a",
      "k ou",
      "m r",
      "m ee",
      "o b",
      "o z",
      "p in",
      "p aw",
      "p éi",
      "p en",
      "p iz",
      "r n",
      "r t",
      "s in",
      "s iz",
      "t u",
      "t ee",
      "u b",
      "u ree",
      "w e",
      "w ë",
      "à m",
      "æ lee",
      "ă b",
      "ă p",
      "ă st",
      "ee t",
      "sh oo",
      "ai k",
      "ou n",
      "un t",
      "àn t",
      "a f",
      "a lee",
      "a ul",
      "b lee",
      "b im",
      "b or",
      "d n",
      "d o",
      "d ë",
      "d ik",
      "d im",
      "d ing",
      "d id",
      "e d",
      "e z",
      "e ree",
      "f à",
      "i ee",
      "i ree",
      "k ó",
      "k en",
      "k ree",
      "l d",
      "l iv",
      "m i",
      "m ik",
      "m iv",
      "m al",
      "m an",
      "m æl",
      "n t",
      "n ór",
      "o d",
      "o k",
      "o v",
      "p oo",
      "p æl",
      "r z",
      "r ou",
      "s p",
      "s æ",
      "s it",
      "s ing",
      "s iv",
      "s àn",
      "s an",
      "s au",
      "s ól",
      "u d",
      "u f",
      "w ór",
      "y u",
      "z éi",
      "à l",
      "æ d",
      "æ p",
      "æ sh",
      "æ ps",
      "ë m",
      "ó k",
      "in d",
      "in dzh",
      "in tr",
      "aw b",
      "aw f",
      "éi dr",
      "sh on",
      "ou k",
      "ou r",
      "dzh en",
      "dzh ou",
      "ik t",
      "un d",
      "it h",
      "is ee",
      "es ee",
      "et s",
      "dee n",
      "th il",
      "éish un",
      "éish on",
      "ig s",
      "a k",
      "a z",
      "a st",
      "a ree",
      "a ing",
      "b a",
      "b n",
      "b u",
      "b éi",
      "b oo",
      "b en",
      "b æk",
      "b æl",
      "b awk",
      "b ent",
      "b ăl",
      "b ait",
      "c h",
      "c k",
      "d e",
      "d z",
      "d en",
      "d éit",
      "d awm",
      "e p",
      "e lee",
      "e str",
      "f ai",
      "f it",
      "f ór",
      "f ir",
      "f ær",
      "f ip",
      "g h",
      "g m",
      "g ee",
      "g ou",
      "g ree",
      "g æn",
      "g ór",
      "g æl",
      "h y",
      "h oo",
      "h it",
      "h is",
      "h ăn",
      "h aws",
      "h awm",
      "i y",
      "i zh",
      "i un",
      "i it",
      "i il",
      "k u",
      "k y",
      "k à",
      "k é",
      "k ă",
      "k is",
      "k iv",
      "k ór",
      "k ul",
      "k awr",
      "k æl",
      "k yoo",
      "k awl",
      "k out",
      "l o",
      "l z",
      "l ë",
      "l it",
      "m e",
      "m ó",
      "m aw",
      "m ai",
      "m ou",
      "m it",
      "m ing",
      "m on",
      "m ăn",
      "m ër",
      "n e",
      "n g",
      "n z",
      "n ai",
      "n ou",
      "n un",
      "n es",
      "n éit",
      "n em",
      "n as",
      "n oum",
      "n oon",
      "o p",
      "o lee",
      "p y",
      "p ë",
      "p ă",
      "p lee",
      "p àn",
      "p et",
      "p al",
      "p ul",
      "p id",
      "p ar",
      "p ut",
      "p awm",
      "p eg",
      "r o",
      "r ai",
      "r iv",
      "r ist",
      "s j",
      "s en",
      "s ou",
      "s ik",
      "s æn",
      "s æk",
      "s ait",
      "s awl",
      "s àm",
      "t i",
      "t s",
      "t oo",
      "t ăn",
      "t um",
      "u z",
      "u ut",
      "v a",
      "v r",
      "v im",
      "v iu",
      "w ă",
      "w ai",
      "w it",
      "w iv",
      "y ul",
      "y an",
      "z m",
      "z in",
      "z en",
      "æ dzh",
      "æ ree",
      "æ tr",
      "ë d",
      "ë n",
      "ë sh",
      "ó st",
      "ó tr",
      "ă f",
      "ă t",
      "ă gol",
      "ee v",
      "in m",
      "in z",
      "éi s",
      "éi z",
      "éi dzh",
      "oo g",
      "oo u",
      "oo z",
      "oo st",
      "sh i",
      "sh ee",
      "sh en",
      "sh ur",
      "sh àl",
      "ai r",
      "ai s",
      "en a",
      "en tr",
      "st l",
      "st et",
      "st éik",
      "dzh r",
      "ree k",
      "ree kou",
      "ik r",
      "ik al",
      "æn d",
      "æn j",
      "æn k",
      "lee k",
      "im ee",
      "im el",
      "il on",
      "il as",
      "on h",
      "on t",
      "pr aw",
      "pr sh",
      "àn d",
      "et h",
      "al e",
      "al awz",
      "awr t",
      "awr dzh",
      "éit in",
      "er a",
      "er om",
      "an s",
      "el t",
      "gr ou",
      "id im",
      "kr æn",
      "kr it",
      "kr aim",
      "ăn g",
      "ar r",
      "au k",
      "ek s",
      "em ee",
      "th r",
      "th ing",
      "tsh u",
      "ir is",
      "pee e",
      "pee l",
      "éish l",
      "ib l",
      "or z",
      "æb ing",
      "joo pee",
      "ăl e",
      "awn d",
      "awn tin",
      "fl et",
      "ig el",
      "æt ee",
      "ær iks",
      "éil i",
      "oum ee",
      "æng l",
      "br o",
      "ăk o",
      "ăk t",
      "soo æ",
      "oul éit",
      "be b",
      "só f",
      "æv en",
      "mr kr",
      "paw g",
      "kó s",
      "a b",
      "a d",
      "a e",
      "a g",
      "a p",
      "a ee",
      "a an",
      "a kr",
      "a dee",
      "a kæn",
      "a bor",
      "a dik",
      "a shee",
      "b s",
      "b é",
      "b in",
      "b aw",
      "b ou",
      "b ree",
      "b ik",
      "b æn",
      "b is",
      "b ing",
      "b il",
      "b es",
      "b àn",
      "b et",
      "b ul",
      "b awr",
      "b er",
      "b au",
      "b tsh",
      "b ól",
      "b aws",
      "b uu",
      "b oum",
      "b ev",
      "b ër",
      "b æf",
      "b oul",
      "b ail",
      "b iks",
      "b ăb",
      "b ăst",
      "b indzh",
      "b ouk",
      "b igs",
      "b yan",
      "b alawz",
      "b joopee",
      "b awnd",
      "d d",
      "d p",
      "d t",
      "d y",
      "d à",
      "d éi",
      "d oo",
      "d ree",
      "d æn",
      "d un",
      "d iv",
      "d on",
      "d iz",
      "d al",
      "d awr",
      "d er",
      "d el",
      "d ar",
      "d ir",
      "d æl",
      "d éish",
      "d ib",
      "d ol",
      "d ent",
      "d ain",
      "d ist",
      "d ig",
      "d æt",
      "d ól",
      "d ev",
      "d nee",
      "d éin",
      "d out",
      "d ăm",
      "d est",
      "d ekt",
      "d awp",
      "d éib",
      "d ail",
      "d iks",
      "d aik",
      "d alee",
      "d igs",
      "d gh",
      "d kæl",
      "d emee",
      "d oumee",
      "e h",
      "e o",
      "e dzh",
      "e un",
      "e tr",
      "e dee",
      "e dr",
      "e os",
      "e dh",
      "e shon",
      "e bait",
      "e ck",
      "e shen",
      "e orz",
      "f a",
      "f e",
      "f o",
      "f u",
      "f æ",
      "f ë",
      "f in",
      "f aw",
      "f éi",
      "f æn",
      "f un",
      "f iv",
      "f on",
      "f es",
      "f iz",
      "f awr",
      "f éit",
      "f er",
      "f ăn",
      "f au",
      "f or",
      "f awk",
      "f awd",
      "f awt",
      "f éil",
      "f ón",
      "f ev",
      "f éin",
      "f ăm",
      "f oul",
      "f ănd",
      "f oree",
      "f æst",
      "f inee",
      "f ail",
      "f edzhee",
      "f hr",
      "f ànt",
      "f æp",
      "f ëm",
      "f elee",
      "f ilon",
      "f awntin",
      "g i",
      "g s",
      "g w",
      "g æ",
      "g it",
      "g on",
      "g àn",
      "g éit",
      "g æk",
      "g ar",
      "g ir",
      "g awk",
      "g ain",
      "g awd",
      "g at",
      "g eu",
      "g æs",
      "g æng",
      "g ub",
      "g we",
      "g ælee",
      "g ăb",
      "g béi",
      "g bawk",
      "g pid",
      "g eks",
      "g etr",
      "h b",
      "h j",
      "h o",
      "h u",
      "h w",
      "h æ",
      "h æn",
      "h un",
      "h im",
      "h il",
      "h ór",
      "h au",
      "h ib",
      "h ent",
      "h iu",
      "h ăl",
      "h ait",
      "h oum",
      "h oon",
      "h out",
      "h éik",
      "h ekt",
      "h loo",
      "h ef",
      "h æps",
      "h ind",
      "h intr",
      "h ëd",
      "h ótr",
      "h ăt",
      "h ikal",
      "h awrdzh",
      "h éitin",
      "h era",
      "h æriks",
      "i i",
      "i ai",
      "i pr",
      "i iz",
      "i al",
      "i ar",
      "i éil",
      "i dzhee",
      "i ez",
      "j e",
      "j u",
      "j w",
      "j ou",
      "j lee",
      "j ór",
      "j ul",
      "j id",
      "j ol",
      "j ut",
      "j awn",
      "j oz",
      "j ak",
      "j ial",
      "k m",
      "k o",
      "k s",
      "k æ",
      "k ee",
      "k aw",
      "k ing",
      "k al",
      "k éit",
      "k er",
      "k au",
      "k ek",
      "k ol",
      "k or",
      "k awk",
      "k iu",
      "k ist",
      "k æm",
      "k awn",
      "k æt",
      "k awd",
      "k at",
      "k eu",
      "k awt",
      "k æs",
      "k ev",
      "k oon",
      "k aim",
      "k ot",
      "k oul",
      "k ănd",
      "k ilee",
      "k oz",
      "k ànt",
      "k iree",
      "k æp",
      "k ooz",
      "k air",
      "k ikr",
      "k éishl",
      "k joopee",
      "k ăkt",
      "k eck",
      "l a",
      "l u",
      "l y",
      "l ö",
      "l éi",
      "l ou",
      "l ik",
      "l is",
      "l im",
      "l es",
      "l æk",
      "l em",
      "l awn",
      "l awl",
      "l éil",
      "l uu",
      "l æs",
      "l æng",
      "l am",
      "l ev",
      "l rr",
      "l eg",
      "l aid",
      "l ænt",
      "l edzhee",
      "l rn",
      "l ók",
      "l ets",
      "l ep",
      "l ti",
      "l ætr",
      "l air",
      "l ont",
      "l auk",
      "l thing",
      "l æbing",
      "l jut",
      "m w",
      "m ă",
      "m oo",
      "m æn",
      "m ór",
      "m àn",
      "m éit",
      "m er",
      "m or",
      "m iu",
      "m ut",
      "m yoo",
      "m ăl",
      "m awn",
      "m aws",
      "m as",
      "m ær",
      "m awl",
      "m oon",
      "m aun",
      "m tin",
      "m æf",
      "m ót",
      "m ook",
      "m eg",
      "m uun",
      "m aid",
      "m ef",
      "m ăb",
      "m oun",
      "m ok",
      "m und",
      "m boo",
      "m bent",
      "m féi",
      "m jou",
      "n n",
      "n r",
      "n ó",
      "n aw",
      "n it",
      "n et",
      "n ul",
      "n æk",
      "n th",
      "n ol",
      "n iu",
      "n awd",
      "n us",
      "n awt",
      "n uu",
      "n aun",
      "n ip",
      "n ăst",
      "n ed",
      "n yu",
      "n ók",
      "n iun",
      "n lë",
      "n ooz",
      "n ale",
      "n ibl",
      "n akæn",
      "n jul",
      "o e",
      "o w",
      "o ps",
      "o bee",
      "o gain",
      "p im",
      "p il",
      "p ór",
      "p es",
      "p awr",
      "p er",
      "p ir",
      "p ain",
      "p aws",
      "p eu",
      "p ær",
      "p awt",
      "p ër",
      "p ăm",
      "p est",
      "p aiz",
      "p ănd",
      "p æst",
      "p ænt",
      "p ilee",
      "p wë",
      "p oun",
      "p isee",
      "p iit",
      "p ky",
      "p uut",
      "p óst",
      "p ais",
      "p ænd",
      "p ăng",
      "p ăle",
      "p eshon",
      "p iar",
      "p kéit",
      "r d",
      "r i",
      "r u",
      "r v",
      "r à",
      "r ó",
      "r en",
      "r ree",
      "r àn",
      "r iz",
      "r el",
      "r id",
      "r ar",
      "r ek",
      "r em",
      "r ir",
      "r ain",
      "r ăl",
      "r ig",
      "r us",
      "r dzhee",
      "r uu",
      "r nee",
      "r éin",
      "r aim",
      "r est",
      "r ót",
      "r ilee",
      "r ld",
      "r æp",
      "r éidr",
      "r dzhen",
      "r az",
      "r aing",
      "r elee",
      "r hit",
      "r ming",
      "r oou",
      "r ăng",
      "r ætee",
      "r kéishl",
      "s a",
      "s w",
      "s à",
      "s éi",
      "s ai",
      "s ree",
      "s is",
      "s ór",
      "s awr",
      "s kr",
      "s ar",
      "s ek",
      "s pee",
      "s ib",
      "s or",
      "s awk",
      "s ent",
      "s joo",
      "s æm",
      "s eu",
      "s om",
      "s éil",
      "s se",
      "s éin",
      "s aim",
      "s aun",
      "s æf",
      "s aiz",
      "s ekt",
      "s rn",
      "s rt",
      "s ken",
      "s man",
      "s deen",
      "s fit",
      "s kă",
      "s leek",
      "s elt",
      "s emee",
      "s fë",
      "s kee",
      "s nit",
      "s rming",
      "t t",
      "t z",
      "t ă",
      "t aw",
      "t ai",
      "t en",
      "t ou",
      "t st",
      "t zh",
      "t un",
      "t es",
      "t àn",
      "t el",
      "t ar",
      "t ur",
      "t ent",
      "t ain",
      "t joo",
      "t ær",
      "t éil",
      "t oon",
      "t éik",
      "t awz",
      "t éib",
      "t ilee",
      "t we",
      "t àm",
      "t ăp",
      "t man",
      "t ók",
      "t ótr",
      "t reekou",
      "t bawr",
      "t doo",
      "t ju",
      "t ogain",
      "u sh",
      "u st",
      "u it",
      "u lee",
      "u th",
      "u fl",
      "u iris",
      "u kawk",
      "v h",
      "v n",
      "v o",
      "v é",
      "v æn",
      "v ing",
      "v il",
      "v awr",
      "v el",
      "v ir",
      "v ent",
      "v awn",
      "v æt",
      "v int",
      "v awl",
      "v ër",
      "v olee",
      "v ëd",
      "v éidzh",
      "v era",
      "v iiz",
      "v ukawk",
      "w éi",
      "w oo",
      "w il",
      "w es",
      "w àn",
      "w iz",
      "w al",
      "w er",
      "w awk",
      "w ăl",
      "w awl",
      "w awt",
      "w éil",
      "w uu",
      "w ăk",
      "w rr",
      "w aiz",
      "w awz",
      "w éib",
      "w éid",
      "w rz",
      "w und",
      "w iy",
      "w ædzh",
      "w ibl",
      "w ængl",
      "w rnee",
      "y un",
      "y ór",
      "y on",
      "y au",
      "y ur",
      "y ut",
      "y edzhee",
      "y pen",
      "y nlë",
      "z ee",
      "z oo",
      "z ou",
      "z zh",
      "z is",
      "z gr",
      "z em",
      "z ir",
      "z ib",
      "z iu",
      "z aun",
      "z æg",
      "z uun",
      "z mal",
      "z kiv",
      "z ànd",
      "z æven",
      "z ap",
      "z bul",
      "à f",
      "à i",
      "à k",
      "à st",
      "à ree",
      "à il",
      "à iz",
      "à gr",
      "à min",
      "à idzh",
      "à gee",
      "à py",
      "à bing",
      "à pisee",
      "à tst",
      "æ en",
      "æ see",
      "æ dh",
      "æ di",
      "æ pl",
      "æ tshu",
      "é st",
      "é ón",
      "ë st",
      "ë gr",
      "ë th",
      "ë vn",
      "ó m",
      "ó in",
      "ó ree",
      "ó it",
      "ó ing",
      "ó see",
      "ó th",
      "ó ish",
      "ó ed",
      "ó pkéit",
      "õ mee",
      "ā k",
      "ā rld",
      "ă ree",
      "ă lee",
      "ă gr",
      "ă ps",
      "ă dzhou",
      "ă vim",
      "ă dal",
      "ă ài",
      "ġ raim",
      "ж ь",
      "ш f",
      "ee e",
      "ee m",
      "ee o",
      "ee in",
      "ee aw",
      "ee sh",
      "ee en",
      "ee zh",
      "ee str",
      "ee nee",
      "ee ka",
      "ee éidr",
      "ee mó",
      "ee nz",
      "ee sj",
      "ee zm",
      "ee ën",
      "ee éili",
      "ee wund",
      "in ü",
      "in en",
      "in zh",
      "in ree",
      "in im",
      "in on",
      "in al",
      "in éit",
      "in ent",
      "in dr",
      "in æng",
      "in si",
      "in inz",
      "in eo",
      "in fëm",
      "in hăt",
      "in ledzhee",
      "in nth",
      "in væn",
      "aw sh",
      "aw ree",
      "aw il",
      "aw pr",
      "aw àn",
      "aw thil",
      "aw wit",
      "éi p",
      "éi r",
      "éi v",
      "éi en",
      "éi st",
      "éi kr",
      "éi ib",
      "éi æb",
      "éi mbent",
      "éi ġraim",
      "éi eeen",
      "oo d",
      "oo l",
      "oo r",
      "oo zh",
      "oo dzh",
      "oo ait",
      "oo dh",
      "oo fen",
      "oo sæ",
      "oo sau",
      "oo me",
      "oo tum",
      "oo va",
      "oo eshen",
      "oo fæ",
      "oo mook",
      "oo tawz",
      "sh a",
      "sh in",
      "sh éi",
      "sh un",
      "sh is",
      "sh il",
      "sh et",
      "sh au",
      "sh æl",
      "sh os",
      "sh ól",
      "sh om",
      "sh ër",
      "sh ót",
      "sh men",
      "sh awp",
      "sh ob",
      "sh ouléit",
      "sh edzh",
      "sh hór",
      "sh lö",
      "sh uit",
      "sh ypen",
      "sh ëgr",
      "sh ópkéit",
      "ai v",
      "ai en",
      "ai æn",
      "ai it",
      "ai iz",
      "ai er",
      "ai an",
      "ai gr",
      "ai str",
      "ai ăk",
      "ai dzhen",
      "ai orz",
      "en z",
      "en an",
      "en ur",
      "en æs",
      "en ot",
      "en oz",
      "en shee",
      "en gs",
      "ou lee",
      "ou yoo",
      "ou san",
      "ou krit",
      "ou bigs",
      "ou zib",
      "ou shypen",
      "st æn",
      "st im",
      "st ist",
      "st ón",
      "st awp",
      "st oz",
      "st éitin",
      "st elt",
      "st eeéili",
      "st ousan",
      "zh im",
      "zh iz",
      "zh er",
      "zh el",
      "zh ăl",
      "dzh in",
      "dzh ree",
      "dzh ik",
      "dzh æn",
      "dzh it",
      "dzh im",
      "dzh ór",
      "dzh es",
      "dzh et",
      "dzh æk",
      "dzh em",
      "dzh ol",
      "dzh æb",
      "dzh os",
      "dzh om",
      "dzh éil",
      "dzh oon",
      "dzh ail",
      "dzh aree",
      "ree tin",
      "ik ee",
      "ik ul",
      "ik ón",
      "ik oum",
      "ik æg",
      "ik inee",
      "ik alee",
      "ik don",
      "ik ufl",
      "æn kl",
      "æn sau",
      "æn uf",
      "æn rót",
      "æn stousan",
      "æn ikee",
      "un g",
      "un es",
      "un dr",
      "un om",
      "un ot",
      "un awf",
      "un je",
      "un óish",
      "un eeo",
      "it in",
      "it ik",
      "it em",
      "it ur",
      "it awk",
      "it ain",
      "it æm",
      "it ook",
      "it eth",
      "it dent",
      "it ri",
      "it eezm",
      "is a",
      "is d",
      "is r",
      "is ik",
      "is ur",
      "is ish",
      "is ekt",
      "is déit",
      "is me",
      "is imee",
      "is buu",
      "lee is",
      "lee am",
      "lee ænt",
      "lee gol",
      "lee nór",
      "lee deen",
      "lee dawm",
      "lee zuun",
      "im on",
      "im ăn",
      "im æb",
      "im ist",
      "im at",
      "im ekt",
      "im if",
      "im ith",
      "im ep",
      "im too",
      "im oost",
      "im fon",
      "im aistr",
      "ing hăl",
      "ing koz",
      "il o",
      "il us",
      "il ip",
      "il tee",
      "tr a",
      "tr l",
      "tr iz",
      "tr an",
      "tr see",
      "tr or",
      "tr ent",
      "tr æt",
      "tr eu",
      "tr oun",
      "tr ikt",
      "tr ets",
      "tr ænj",
      "tr igel",
      "tr rest",
      "tr yut",
      "tr éiib",
      "tr ikoum",
      "tr ænikee",
      "tr imif",
      "iv ee",
      "iv ór",
      "iv er",
      "iv ar",
      "iv op",
      "iv eos",
      "iv raz",
      "ór sh",
      "ór is",
      "ór ol",
      "ór rz",
      "ór zéi",
      "ór dkæl",
      "ór net",
      "ór snit",
      "ór viiz",
      "on is",
      "on shoo",
      "pr g",
      "pr es",
      "pr awr",
      "pr ek",
      "pr awk",
      "pr ain",
      "pr ist",
      "pr kl",
      "pr ăl",
      "pr ær",
      "pr uu",
      "pr æs",
      "pr ón",
      "pr éin",
      "pr æst",
      "pr iree",
      "pr ăt",
      "pr awntin",
      "pr ràn",
      "pr éimbent",
      "pr enz",
      "es ou",
      "es àn",
      "es do",
      "es oomook",
      "es unom",
      "àn iz",
      "àn tsh",
      "àn poo",
      "àn ind",
      "àn sawl",
      "àn trikoum",
      "et ik",
      "et éit",
      "et ip",
      "et hr",
      "et shoo",
      "et ith",
      "et maid",
      "et inon",
      "et engs",
      "al z",
      "al ăn",
      "al mó",
      "ul us",
      "awr m",
      "awr in",
      "awr as",
      "awr shoo",
      "awr ov",
      "awr gon",
      "awr sa",
      "awr isdéit",
      "awr pruu",
      "éit n",
      "éit ik",
      "éit ing",
      "éit id",
      "er éish",
      "er kw",
      "er ot",
      "er idzh",
      "er do",
      "er ed",
      "er isimee",
      "an d",
      "an ist",
      "an sin",
      "an àidzh",
      "el f",
      "el it",
      "el kl",
      "el inent",
      "gr ek",
      "gr ain",
      "gr ook",
      "gr éid",
      "gr hr",
      "gr àm",
      "gr ăp",
      "gr dik",
      "gr awnd",
      "gr gælee",
      "gr lis",
      "gr àmin",
      "gr aiv",
      "id es",
      "id éit",
      "id iu",
      "id éin",
      "id hil",
      "id aien",
      "id isik",
      "kr e",
      "kr ut",
      "kr æt",
      "kr ait",
      "kr æng",
      "kr eg",
      "kr æst",
      "kr ést",
      "kr awrpruu",
      "æk t",
      "æk st",
      "æk se",
      "æk sait",
      "æk stéik",
      "æk diks",
      "æk ipr",
      "æk jol",
      "æk lthing",
      "æk séil",
      "æk tra",
      "ăn ar",
      "ăn gk",
      "ăn va",
      "ar se",
      "ar aid",
      "ar éishun",
      "ar entr",
      "ar eun",
      "ar idhil",
      "au si",
      "au féil",
      "au rd",
      "au togain",
      "dee f",
      "dee on",
      "dee em",
      "dee iu",
      "dee nee",
      "dee æv",
      "dee iree",
      "dee hw",
      "dee jak",
      "dee dzharee",
      "ek sp",
      "ek eesj",
      "ek shob",
      "see c",
      "see n",
      "see v",
      "see ree",
      "see pë",
      "see déi",
      "see sha",
      "see iteezm",
      "em int",
      "em as",
      "em ben",
      "em ont",
      "em făm",
      "th awn",
      "th int",
      "th aun",
      "th ulee",
      "th eenz",
      "th aiæn",
      "tsh i",
      "tsh ë",
      "tsh ou",
      "tsh awn",
      "tsh um",
      "tsh awt",
      "tsh æg",
      "tsh eet",
      "tsh oog",
      "tsh entr",
      "tsh oofen",
      "ur al",
      "ur am",
      "ur ev",
      "ur ót",
      "ur az",
      "ur ru",
      "ur saun",
      "ir d",
      "ir it",
      "ir um",
      "ir soo",
      "ir æsh",
      "pee n",
      "pee æst",
      "pee gree",
      "pee kis",
      "pee stet",
      "pee ilo",
      "pee trænikee",
      "æl deeæv",
      "éish r",
      "éish en",
      "éish ul",
      "éish ob",
      "éish keu",
      "éish uth",
      "ib éi",
      "ib il",
      "ib æt",
      "ib we",
      "ib ro",
      "ib rain",
      "ib æen",
      "ib óris",
      "ol éishon",
      "ol rdzhee",
      "or os",
      "or oum",
      "or ook",
      "awk san",
      "awk uz",
      "awk srming",
      "awk irum",
      "ent z",
      "ent au",
      "ent zhăl",
      "ain r",
      "ain ee",
      "ain is",
      "ain sól",
      "ain etengs",
      "æb es",
      "æb fl",
      "æb um",
      "æb rr",
      "æb sing",
      "æb tum",
      "æb déish",
      "æb relee",
      "æb imekt",
      "iu hai",
      "iu pin",
      "iu wéil",
      "ist ee",
      "ist éid",
      "ist aian",
      "joo kl",
      "joo dzhee",
      "joo tu",
      "joo mon",
      "joo ti",
      "æm r",
      "æm æm",
      "æm ev",
      "æm pal",
      "æm bæf",
      "æm nibl",
      "æm ilip",
      "æm oroum",
      "dr æs",
      "dr bæk",
      "dr izh",
      "dr rir",
      "dr éiv",
      "kl oon",
      "kl out",
      "kl ăp",
      "kl æbing",
      "kl lrr",
      "kl oova",
      "kl shlö",
      "kl iltee",
      "ut eree",
      "ut eev",
      "ut éien",
      "ut oulee",
      "yoo dnee",
      "yoo hib",
      "yoo nol",
      "yoo tă",
      "yoo thint",
      "ăl hæriks",
      "ăl tent",
      "fl æng",
      "fl éik",
      "fl aik",
      "fl oog",
      "fl oodzh",
      "fl órrz",
      "fl æmr",
      "ig z",
      "ig um",
      "ig aiz",
      "ig ush",
      "os s",
      "os éili",
      "æt edee",
      "æt nakæn",
      "ól in",
      "ól bree",
      "ól zhim",
      "ól and",
      "int s",
      "int lee",
      "int éin",
      "int stelt",
      "int awrm",
      "awd aiz",
      "awd inee",
      "awd imith",
      "awd ides",
      "aws dee",
      "aws at",
      "aws fes",
      "aws ints",
      "ait n",
      "ait af",
      "ait nas",
      "as aws",
      "as zoo",
      "at iz",
      "at awrdzh",
      "at eesh",
      "at ootum",
      "eu vee",
      "eu piz",
      "eu beb",
      "om it",
      "om ălee",
      "om oushypen",
      "um e",
      "um éitid",
      "um uraz",
      "us il",
      "us ëvn",
      "us aitn",
      "ær inéit",
      "ær atawrdzh",
      "awl sfë",
      "awt ee",
      "awt id",
      "éil eth",
      "str æf",
      "str éid",
      "str æsh",
      "str oost",
      "str sman",
      "str ănva",
      "dzhee ld",
      "uu z",
      "uu ka",
      "æs kæ",
      "æs sree",
      "ón bawk",
      "ón fawt",
      "ón dzhit",
      "ón grhr",
      "awm léi",
      "awm enot",
      "awm eubeb",
      "æng ps",
      "am aing",
      "br ou",
      "br im",
      "br ing",
      "br zm",
      "br oofæ",
      "br iteth",
      "ev uteree",
      "kw em",
      "kw ins",
      "kw rn",
      "kw eet",
      "kw ængl",
      "kw erkw",
      "kw éileth",
      "nee e",
      "nee n",
      "nee ans",
      "se p",
      "se prsh",
      "se fail",
      "se zap",
      "se brou",
      "si éi",
      "si fawk",
      "si peshon",
      "si autogain",
      "ër n",
      "ër tror",
      "ăk od",
      "ăk sit",
      "aim ul",
      "aim imel",
      "out æktra",
      "dh rt",
      "dh deen",
      "dh aimul",
      "gk u",
      "gk ik",
      "gk al",
      "gk ul",
      "gk nem",
      "ps entau",
      "soo diz",
      "soo mas",
      "soo shéi",
      "soo psentau",
      "ăm ar",
      "ăm idim",
      "ăm peee",
      "ăm ikinee",
      "aun gku",
      "di ikæg",
      "di leeis",
      "di oros",
      "est s",
      "est ree",
      "est ikr",
      "fr k",
      "fr n",
      "fr estr",
      "fr auk",
      "fr ængps",
      "fr aungku",
      "hai ka",
      "hai gór",
      "hai dun",
      "hai wil",
      "hai dréiv",
      "ip t",
      "ish n",
      "ish ai",
      "ish il",
      "pl éin",
      "pl ăst",
      "pl oumee",
      "pl esdo",
      "pl usil",
      "rr éiz",
      "rr niun",
      "rr imfon",
      "æf ik",
      "æf steeéili",
      "æg a",
      "æg zem",
      "æg elf",
      "ót our",
      "ins kà",
      "ins nó",
      "ins vera",
      "ins plăst",
      "éik aid",
      "ook mal",
      "ook tótr",
      "oul m",
      "ănd ob",
      "ănd af",
      "ănd ts",
      "ekt ain",
      "be un",
      "be leeænt",
      "be frauk",
      "bà iil",
      "bà vr",
      "bà shur",
      "bà shhór",
      "bà ibil",
      "bee volee",
      "bee neee",
      "dis zéi",
      "dis fir",
      "dis kul",
      "dis aee",
      "fee os",
      "fee kawr",
      "fee raing",
      "fee haiwil",
      "fen dn",
      "fen dalee",
      "fen gwe",
      "gl isee",
      "gl āk",
      "gl ouyoo",
      "gl ækst",
      "gl ăkod",
      "if id",
      "if àf",
      "if ólbree",
      "kéi viu",
      "kæn yoo",
      "kæn fà",
      "kæn ng",
      "kæn sekt",
      "loo r",
      "loo t",
      "loo see",
      "loo dzhail",
      "min lets",
      "min igum",
      "men g",
      "men ee",
      "men ædzh",
      "men thawn",
      "sl r",
      "sl em",
      "sl ænt",
      "sl yootă",
      "sl ótour",
      "só z",
      "só dz",
      "só brim",
      "uun vee",
      "vee s",
      "vee zis",
      "æv viu",
      "æv iai",
      "inee finee",
      "awp adik",
      "awp itook",
      "éib éidr",
      "éib usëvn",
      "éid ing",
      "ens el",
      "ens aws",
      "ens ud",
      "ens néit",
      "ens жь",
      "iks ainetengs",
      "ænt lu",
      "bi eu",
      "bi etith",
      "bi erdo",
      "bl t",
      "bl ist",
      "bl ăf",
      "bl àbing",
      "bó m",
      "bó vent",
      "bó shouléit",
      "bó leedawm",
      "din f",
      "din æng",
      "din ëm",
      "din triz",
      "ef ool",
      "ef shin",
      "hr joo",
      "idzh us",
      "ka tshou",
      "kou km",
      "kou shos",
      "mr tsh",
      "mee lz",
      "mee nun",
      "ob éis",
      "pin op",
      "pin wædzh",
      "pin awrisdéit",
      "paw dzhou",
      "paw fo",
      "péi z",
      "péi min",
      "péi stl",
      "pen dzh",
      "pen es",
      "pen ish",
      "piz ik",
      "rn etshoo",
      "rt æn",
      "rt yan",
      "sin yoo",
      "siz eem",
      "tu felee",
      "tu àree",
      "tu emint",
      "tee l",
      "tee kéiviu",
      "ub am",
      "ub sooæ",
      "uree bietith",
      "we dee",
      "wë mee",
      "wë fa",
      "wë feeos",
      "ælee int",
      "ăb ik",
      "ăp trænj",
      "eet i",
      "eet awb",
      "shoo miu",
      "aik oozh",
      "aik ăndts",
      "oun faw",
      "unt au",
      "unt awpadik",
      "ànt ree",
      "ànt enshee",
      "af ree",
      "aul éishon",
      "aul awdinee",
      "blee n",
      "blee ziu",
      "bim uree",
      "bim lit",
      "bim ădzhou",
      "bor unot",
      "dn gm",
      "dn oosau",
      "do drizh",
      "dë de",
      "dë lz",
      "dë tilee",
      "dik uree",
      "dim our",
      "dim dree",
      "dim zzh",
      "ding ku",
      "ding shópkéit",
      "ding katshou",
      "did imel",
      "ez eu",
      "fà ith",
      "fà bieu",
      "iee s",
      "iee nee",
      "iee ækstéik",
      "kó ree",
      "ken iun",
      "ken órviiz",
      "kree n",
      "liv læng",
      "liv itawk",
      "liv igz",
      "mi ó",
      "mi ezeu",
      "mik shur",
      "mik àil",
      "mik awsh",
      "miv ale",
      "miv ko",
      "miv ishn",
      "mal is",
      "man rar",
      "mæl dir",
      "mæl imist",
      "mæl entz",
      "nór tr",
      "nór ljut",
      "od ent",
      "ok il",
      "ok ainr",
      "ov es",
      "ov ir",
      "poo r",
      "poo lti",
      "pæl tee",
      "pæl irsoo",
      "pæl aszoo",
      "rou vr",
      "rou thing",
      "sp eks",
      "sp aitaf",
      "sæ see",
      "sæ dhrt",
      "sit fedzhee",
      "sit óth",
      "siv rz",
      "siv itri",
      "sàn intr",
      "sàn sis",
      "sàn ædh",
      "san infëm",
      "sau dd",
      "sól bu",
      "ud kiu",
      "uf kiree",
      "uf éishkeu",
      "wór m",
      "wór nt",
      "wór zgr",
      "yu feeraing",
      "zéi zou",
      "àl bóm",
      "æd iveos",
      "æd estree",
      "æsh n",
      "æps óed",
      "ëm etip",
      "ind out",
      "indzh ălhæriks",
      "intr awd",
      "awb jootu",
      "awf izh",
      "ouk ee",
      "ouk ăbik",
      "our loor",
      "dzhen gkul",
      "dzhou neen",
      "und aiiz",
      "thil éieeen",
      "igs krait",
      "ast out",
      "ast hun",
      "ba floodzh",
      "bn ingkoz",
      "bu pky",
      "béi mi",
      "boo sà",
      "ben gm",
      "bæk esunom",
      "bæl tbawr",
      "bæl shil",
      "bent ing",
      "băl inim",
      "ch aul",
      "ch ly",
      "ck haidréiv",
      "de treu",
      "den ik",
      "den ent",
      "dawm itæm",
      "estr ow",
      "fai vé",
      "fai bleen",
      "fit shër",
      "fór s",
      "fór dp",
      "fir ais",
      "fær a",
      "fip ætee",
      "fip awtid",
      "gou pid",
      "gæn siz",
      "gæn dzhim",
      "gór ume",
      "gæl d",
      "gæl v",
      "hy éir",
      "hy umuraz",
      "hoo iez",
      "hoo jid",
      "hit i",
      "his esàn",
      "his klshlö",
      "hăn too",
      "hăn deenee",
      "haws isr",
      "haws loosee",
      "hawm prist",
      "hawm ifid",
      "iy r",
      "ku leegol",
      "ky éit",
      "kà rist",
      "ké nale",
      "ké rdzhen",
      "kă gkal",
      "kis aulawdinee",
      "kiv ëth",
      "kór bee",
      "kór ld",
      "kæl ansin",
      "kyoo z",
      "kyoo vir",
      "kawl iz",
      "kawl ipt",
      "kout aw",
      "kout nn",
      "lo gh",
      "lo krit",
      "lë z",
      "lit yufeeraing",
      "maw dzhæn",
      "maw grlis",
      "mai o",
      "mai wrz",
      "mou dól",
      "mou sken",
      "mit luu",
      "ming k",
      "mon ælee",
      "măn éi",
      "mër s",
      "mër keniun",
      "ne flet",
      "ne oome",
      "nz it",
      "nai esou",
      "nou kræn",
      "nou sep",
      "nes mund",
      "néit ee",
      "nem flet",
      "noum aréishun",
      "noum æga",
      "noon uu",
      "noon tzh",
      "py enan",
      "pë k",
      "pă dzhree",
      "plee see",
      "plee gee",
      "pàn jlee",
      "pàn iupin",
      "pet shen",
      "pet yun",
      "pal ookmal",
      "pul ik",
      "pul etik",
      "par awk",
      "par ăksit",
      "put unt",
      "put yau",
      "pawm igaiz",
      "peg oree",
      "peg alz",
      "ro di",
      "rai gol",
      "rai tshum",
      "riv aridhil",
      "rist hoon",
      "sj k",
      "sen dee",
      "sen oukrit",
      "sou v",
      "sou z",
      "sik ól",
      "sik yul",
      "sæn tsh",
      "sæn stréid",
      "sæk unóish",
      "sawl răng",
      "sàm blee",
      "sàm hait",
      "tăn rv",
      "tăn gkik",
      "uz z",
      "vim hiu",
      "wă g",
      "wă lee",
      "wai ul",
      "wai siz",
      "wit ămpeee",
      "wiv z",
      "wiv yul",
      "zin ik",
      "zin æksait",
      "zen inæng",
      "zen malis",
      "æree un",
      "æree neeans",
      "ësh in",
      "óst eeën",
      "ăgol awl",
      "ăgol esee",
      "inm awrt",
      "inm ăndaf",
      "éiz ing",
      "oou ulus",
      "shi erot",
      "shàl tin",
      "shàl tz",
      "ena træt",
      "stet il",
      "stéik areun",
      "dzhr lee",
      "reek uun",
      "reek ólin",
      "reekou hyéir",
      "ænd wăk",
      "ænj ubam",
      "ænk ëst",
      "ænk awsfes",
      "leek uuz",
      "onh om",
      "onh eree",
      "praw peestet",
      "praw blist",
      "prsh dhdeen",
      "ànd aw",
      "awrt àpisee",
      "erom awt",
      "grou bee",
      "idim æleeint",
      "kræn livitawk",
      "kraim éishun",
      "kraim ămidim",
      "arr awkuz",
      "thr isish",
      "thr ishil",
      "peee ur",
      "peel e",
      "ăle peel",
      "bro stetil",
      "bro peele",
      "ăko óland",
      "ăkt efool",
      "sooæ i",
      "ouléit i",
      "beb sin",
      "sóf t",
      "sóf el",
      "æven bn",
      "mrkr ootawz",
      "mrkr ëmetip",
      "pawg etinon",
      "pawg éishul",
      "kós iræsh",
      "ab dgh",
      "ad aier",
      "ag oree",
      "aan astout",
      "akr d",
      "adee t",
      "abor tman",
      "bs uunvee",
      "bé z",
      "bou plusil",
      "bæn dis",
      "bis p",
      "bil yur",
      "bes ætr",
      "bàn siéi",
      "bet nr",
      "ber năst",
      "btsh eev",
      "baws kwerkw",
      "bev óm",
      "bër bik",
      "boul el",
      "băb iris",
      "băst a",
      "bindzh il",
      "bouk ing",
      "byan déin",
      "balawz éip",
      "bawnd os",
      "dt éishl",
      "dy atiz",
      "dà ikalee",
      "dæn tshu",
      "div ësh",
      "dawr kilee",
      "der ikón",
      "del bevóm",
      "dar ibrain",
      "dæl obee",
      "dib aitnas",
      "dol éi",
      "dain iz",
      "dist iz",
      "dig ree",
      "dæt ivór",
      "dev ăltent",
      "dăm ae",
      "dest au",
      "dekt æs",
      "dawp imæb",
      "déib ung",
      "dail idaien",
      "daik if",
      "digs iuwéil",
      "eh awt",
      "edr vh",
      "edh a",
      "fu vo",
      "fæn oséili",
      "fun k",
      "fiv in",
      "fiz ree",
      "fawr d",
      "féit istaian",
      "fer ree",
      "făn see",
      "fau kree",
      "for oor",
      "fawd oree",
      "fón dinf",
      "fev rtæn",
      "féin iv",
      "foul emont",
      "fănd au",
      "foree goupid",
      "fæst usaitn",
      "fànt sikól",
      "fæp tt",
      "filon jw",
      "gw asaws",
      "gæ grgælee",
      "git ërtror",
      "gàn gbawk",
      "gæk or",
      "gar awras",
      "gawk kéi",
      "gawd in",
      "geu kæt",
      "gæs ikufl",
      "gæng veezis",
      "gub ăktefool",
      "gbéi slem",
      "gpid er",
      "getr esee",
      "hj uféishkeu",
      "ho chly",
      "hu ërn",
      "hæ drbæk",
      "hæn ur",
      "him ætshu",
      "hau peeeur",
      "hent uram",
      "houm ol",
      "hekt ibéi",
      "hloo piz",
      "hef lee",
      "hæps ul",
      "hind éikaid",
      "hintr z",
      "hótr unes",
      "hikal o",
      "hawrdzh odent",
      "jór o",
      "jawn gk",
      "joz ouléiti",
      "jial p",
      "kaw trsee",
      "king aim",
      "kal ood",
      "ker ën",
      "kau mió",
      "kek wălee",
      "kol óin",
      "kor éidzh",
      "kist eree",
      "kæm omălee",
      "kawn pawgéishul",
      "kawd istéid",
      "kat u",
      "kawt in",
      "kæs inz",
      "koon riz",
      "kaim ivraz",
      "kot oo",
      "koul bin",
      "kănd uuka",
      "kànt yon",
      "kæp onhom",
      "kair peen",
      "kikr éit",
      "kjoopee besætr",
      "keck hb",
      "lou sing",
      "lik us",
      "lim ounfaw",
      "les iu",
      "læk woo",
      "lem naun",
      "lawn istee",
      "léil ing",
      "læs untawpadik",
      "lev e",
      "leg on",
      "lrn spee",
      "lók min",
      "lep ósee",
      "lætr uree",
      "lair e",
      "lauk zhiz",
      "mw ureebietith",
      "mă tufelee",
      "moo livigz",
      "mæn yoothint",
      "mór tshawt",
      "màn gou",
      "méit si",
      "mer ilas",
      "mor ensel",
      "mut fe",
      "myoo piit",
      "măl tran",
      "mawn stæn",
      "maws éiting",
      "mær ilus",
      "mawl ateesh",
      "moon treekou",
      "maun ifàf",
      "mæf àst",
      "mót ee",
      "muun gknem",
      "mef õmee",
      "moun ist",
      "mok ămikinee",
      "mboo fee",
      "mjou gat",
      "naw enoz",
      "næk erisimee",
      "niu dzhee",
      "nawd i",
      "nus skee",
      "nawt ud",
      "nip ivee",
      "ned eupiz",
      "nyu ursaun",
      "nók stist",
      "nooz imoost",
      "njul éitik",
      "ops isme",
      "pim garawras",
      "pil idiu",
      "pór bring",
      "pes ibóris",
      "pawr did",
      "pir ànind",
      "paws amaing",
      "peu pee",
      "pær os",
      "pawt găb",
      "për sin",
      "păm imat",
      "pest ivar",
      "paiz kikréit",
      "pæst ans",
      "pænt óing",
      "pwë sfit",
      "poun ing",
      "puut gréid",
      "póst ufkiree",
      "pais imăn",
      "pænd awz",
      "păng nórtr",
      "piar lee",
      "rà untau",
      "ró i",
      "ren joo",
      "rree njuléitik",
      "rel hawmifid",
      "rid ee",
      "rek trl",
      "rem yór",
      "răl en",
      "rig eenee",
      "rus ikal",
      "ruu fen",
      "réin es",
      "rilee miezeu",
      "ræp see",
      "rhit awk",
      "rkéishl sjk",
      "sw inree",
      "séi gi",
      "sai pă",
      "sawr haika",
      "sar item",
      "sek ăf",
      "sib lee",
      "sor iees",
      "sjoo n",
      "sæm bait",
      "seu itur",
      "som uiris",
      "sse dh",
      "séin o",
      "saim óndzhit",
      "saiz os",
      "srn joodzhee",
      "srt ehawt",
      "skă gpider",
      "selt awsdee",
      "semee a",
      "taw ishai",
      "tai zher",
      "ten ikul",
      "tou uneeo",
      "tes ilon",
      "tàn itin",
      "tel fórdp",
      "tar éibéidr",
      "tain eréish",
      "tjoo roou",
      "tær urót",
      "toon ins",
      "téik oe",
      "twe il",
      "tàm t",
      "tók idzhus",
      "tdoo bor",
      "tju éishob",
      "ust shis",
      "vil zbul",
      "vawr lokrit",
      "vel araid",
      "vawn sitóth",
      "væt un",
      "vint irit",
      "vawl piz",
      "vër s",
      "véidzh oree",
      "wes pr",
      "wàn ektain",
      "wiz ăài",
      "wal ekshob",
      "wer u",
      "wawk ez",
      "wăl dzhrlee",
      "wawl moudól",
      "wrr ooktótr",
      "waiz oouulus",
      "wéib nt",
      "wéid iz",
      "wiy elit",
      "wibl iuhai",
      "wrnee ăngk",
      "ynlë ee",
      "zaun isd",
      "zæg olee",
      "zkiv n",
      "zæven éit",
      "àgr rkéishlsjk",
      "àpy unawf",
      "àtst sifawk",
      "æsee nt",
      "æpl edha",
      "éón shuit",
      "óit onis",
      "ăree unt",
      "ăgr o",
      "ăps aiorz",
      "ăvim nai",
      "ădal indzh",
      "eeaw stoz",
      "eeka gree",
      "eeéidr ou",
      "eemó omit",
      "eewund oukăbik",
      "inen dzhom",
      "inzh iver",
      "indr aiit",
      "insi shun",
      "ininz r",
      "ineo ynlëee",
      "inhăt abdgh",
      "innth éis",
      "invæn aanastout",
      "awil ub",
      "awpr ilas",
      "awàn dzhos",
      "awthil iéil",
      "awwit idzh",
      "éist alee",
      "éiæb yedzhee",
      "oodh ee",
      "oosæ dzhik",
      "shau d",
      "shæl as",
      "shól tenikul",
      "shom iit",
      "shmen drrir",
      "shawp u",
      "shëgr esee",
      "aigr en",
      "aiăk tuemint",
      "aidzhen ng",
      "enur ooeshen",
      "enæs demee",
      "oubigs utéien",
      "ouzib ainee",
      "zhel am",
      "dzhór ooait",
      "dzhes urru",
      "dzhet ee",
      "dzhæk ing",
      "dzhem ik",
      "dzhol àiz",
      "dzhæb almó",
      "dzhéil etéit",
      "dzhoon g",
      "ikdon ee",
      "ænkl æt",
      "ænsau touuneeo",
      "ænuf oléishon",
      "ænstousan t",
      "undr mféi",
      "itain măb",
      "itdent eee",
      "isekt im",
      "isbuu thulee",
      "leeam ot",
      "leenór borunot",
      "leezuun ausi",
      "imep dzholàiz",
      "imtoo doléi",
      "imaistr ibro",
      "inghăl æl",
      "trent okainr",
      "troun ets",
      "trigel an",
      "trrest id",
      "tryut éizing",
      "tréiib tjuéishob",
      "trimif joo",
      "ivop it",
      "órol ækdiks",
      "órzéi v",
      "órdkæl zmal",
      "órnet shi",
      "órsnit shmendrrir",
      "onshoo d",
      "pres intstelt",
      "prawr per",
      "prek see",
      "prkl it",
      "prăl iv",
      "prær ing",
      "præs ourloor",
      "prón tàmt",
      "priree nas",
      "prawntin isee",
      "prràn zeninæng",
      "préimbent sait",
      "àniz itik",
      "àntsh awthiliéil",
      "ànpoo górume",
      "ànsawl see",
      "àntrikoum akrd",
      "ethr u",
      "etmaid lam",
      "alăn ee",
      "awrshoo beun",
      "awrov int",
      "awrgon poor",
      "ered on",
      "anàidzh éishuth",
      "elkl æd",
      "grek anàidzhéishuth",
      "grain æseent",
      "grook is",
      "grăp walekshob",
      "grdik éitn",
      "gràmin st",
      "idéin ent",
      "krut legon",
      "kræt idéit",
      "kræng kev",
      "kræst ik",
      "ækse putunt",
      "ækjol os",
      "ækséil aid",
      "ănar dngm",
      "arse ul",
      "arentr enæsdemee",
      "deeiu mit",
      "deeiree fin",
      "deehw on",
      "deejak efshin",
      "eksp reekuun",
      "seepë st",
      "seeiteezm ælee",
      "emas unje",
      "emben ou",
      "thaun tdoobor",
      "thaiæn arseul",
      "tshawn gbéislem",
      "tshæg pegoree",
      "tsheet wórm",
      "tshentr mërs",
      "urev jialp",
      "peeæst igel",
      "peegree ests",
      "ældeeæv et",
      "ibæt in",
      "ibwe sh",
      "olrdzhee ā",
      "orook eezh",
      "awksan mr",
      "entzhăl æviai",
      "ainsól ing",
      "æbfl awb",
      "æbum ból",
      "æbrr héitin",
      "æbsing ikdonee",
      "æbtum eeawstoz",
      "æbdéish ing",
      "æbimekt o",
      "joomon tuàree",
      "jooti ek",
      "æmæm eeéidrou",
      "æmev eeti",
      "æmpal éiding",
      "æmbæf tur",
      "æmilip ieenee",
      "æmoroum in",
      "dræs udkiu",
      "kloon d",
      "klout auféil",
      "klăp erom",
      "kllrr dingshópkéit",
      "kloova onshood",
      "uteev ul",
      "yoohib ird",
      "flæng ts",
      "fléik ăko",
      "flaik sdeen",
      "igush leeamot",
      "ólzhim in",
      "intéin dz",
      "awdaiz zir",
      "awdimith pleegee",
      "awsat éi",
      "euvee kawtin",
      "omoushypen d",
      "ærinéit iv",
      "æratawrdzh iz",
      "awlsfë gænsiz",
      "stræf od",
      "stræsh ineoynlëee",
      "stroost isa",
      "æskæ deeem",
      "æssree zkivn",
      "ónbawk u",
      "óngrhr шf",
      "awmenot o",
      "brzm ăst",
      "broofæ z",
      "briteth ul",
      "evuteree ustshis",
      "kwrn dzhee",
      "kweet awtee",
      "kwængl i",
      "seprsh asthun",
      "sefail d",
      "sezap ólzhimin",
      "aimimel es",
      "soomas aigren",
      "diikæg un",
      "estikr pyenan",
      "haidun z",
      "ploumee z",
      "plesdo vee",
      "rréiz i",
      "rrniun s",
      "æfsteeéili inü",
      "ægzem bsuunvee",
      "inskà r",
      "insnó inee",
      "insvera el",
      "insplăst iv",
      "ăndob æreeun",
      "bàvr blt",
      "bàshur il",
      "bàshhór y",
      "diszéi r",
      "disfir ot",
      "feehaiwil in",
      "fengwe or",
      "glisee l",
      "glouyoo z",
      "glăkod ă",
      "kænfà siz",
      "kænng vërs",
      "kænsekt am",
      "menædzh ekeesj",
      "menthawn iv",
      "slænt æm",
      "slyootă did",
      "slótour éishr",
      "ævviu ving",
      "ineefinee ol",
      "awpitook awd",
      "ensжь órsh",
      "æntlu shon",
      "bierdo féitistaian",
      "blăf okil",
      "bóvent n",
      "dinëm imee",
      "koukm ækt",
      "koushos al",
      "meenun isur",
      "obéis am",
      "pinop ik",
      "pinwædzh anist",
      "rnetshoo z",
      "ubsooæ eein",
      "ăptrænj es",
      "eetawb an",
      "aikoozh o",
      "àntenshee ou",
      "bimlit ee",
      "dnoosau sól",
      "dodrizh an",
      "dimour awrsa",
      "dimdree eorz",
      "dimzzh iyr",
      "dingku dzhesurru",
      "didimel oss",
      "fàith trikt",
      "ieeækstéik al",
      "kenórviiz on",
      "livlæng nes",
      "mikàil imon",
      "mikawsh n",
      "mivko foulemont",
      "manrar ikt",
      "mældir éishen",
      "nórljut oo",
      "pælirsoo tin",
      "pælaszoo vëd",
      "spaitaf uut",
      "sitfedzhee on",
      "sànintr àn",
      "sànsis awkirum",
      "sànædh entzhălæviai",
      "saninfëm us",
      "wórzgr aiz",
      "awbjootu dzhoong",
      "awfizh æk",
      "undaiiz i",
      "igskrait oulm",
      "bafloodzh e",
      "bupky ór",
      "boosà d",
      "bengm órnetshi",
      "bækesunom ee",
      "bæltbawr dr",
      "bælshil deeon",
      "detreu thiléieeen",
      "dawmitæm is",
      "estrow ek",
      "faivé int",
      "fipætee is",
      "gændzhim éikr",
      "hooiez nul",
      "hoojid ëshin",
      "hisesàn inghălæl",
      "hisklshlö s",
      "hawmprist ik",
      "kivëth itainmăb",
      "kælansin shoomiu",
      "mousken d",
      "neflet ur",
      "neoome éónshuit",
      "noukræn oves",
      "nemflet éishon",
      "noontzh awr",
      "pădzhree awf",
      "pànjlee seeiteezmælee",
      "pàniupin denik",
      "parăksit éit",
      "putyau sing",
      "senoukrit àntensheeou",
      "sikyul is",
      "sænstréid iv",
      "sawlrăng lee",
      "tănrv faukree",
      "vimhiu gir",
      "wivyul at",
      "ósteeën is",
      "inmawrt emasunje",
      "inmăndaf ail",
      "enatræt ikt",
      "ændwăk s",
      "ænkëst ena",
      "ænkawsfes dyatiz",
      "prawpeestet ee",
      "awrtàpisee grou",
      "krænlivitawk shon",
      "arrawkuz idzhee",
      "thrisish ul",
      "mrkrootawz ee",
      "kósiræsh uméitid",
      "adaier lont",
      "abortman t",
      "bilyur in",
      "betnr uun",
      "bernăst arrawkuzidzhee",
      "bawskwerkw yoo",
      "byandéin is",
      "dælobee nuu",
      "dawpimæb ibæen",
      "fænoséili ashee",
      "fæptt il",
      "filonjw ămar",
      "gægrgælee o",
      "gitërtror eridzh",
      "gàngbawk k",
      "gæsikufl æshn",
      "gængveezis ou",
      "hjuféishkeu p",
      "henturam éishun",
      "hótrunes aree",
      "kawtrsee nzit",
      "kæmomălee laid",
      "koonriz auléishon",
      "kănduuka ks",
      "kàntyon rtyan",
      "limounfaw kræstik",
      "lækwoo theenz",
      "lemnaun awrovint",
      "læsuntawpadik ol",
      "lrnspee seltawsdee",
      "mwureebietith àk",
      "mænyoothint arr",
      "mórtshawt ree",
      "myoopiit ing",
      "măltran z",
      "mawnstæn dzhr",
      "mawlateesh ouzibainee",
      "moontreekou stl",
      "mæfàst o",
      "muungknem uzz",
      "mefõmee n",
      "nedeupiz n",
      "pimgarawras is",
      "pilidiu ii",
      "pestivar ait",
      "pæntóing z",
      "póstufkiree iil",
      "paisimăn edzhee",
      "remyór elinent",
      "rigeenee um",
      "taizher b",
      "taineréish tun",
      "vilzbul awd",
      "wrrooktótr oodhee",
      "wibliuhai s",
      "wrneeăngk enurooeshen",
      "àpyunawf in",
      "àtstsifawk teel",
      "inzhiver rói",
      "indraiit edrvh",
      "insishun s",
      "inhătabdgh l",
      "awàndzhos kéi",
      "dzhæbalmó iz",
      "leezuunausi at",
      "tréiibtjuéishob ak",
      "órsnitshmendrrir ai",
      "prrànzeninæng zee",
      "grekanàidzhéishuth ural",
      "ănardngm ót",
      "dræsudkiu zhelam",
      "seprshasthun awn",
      "estikrpyenan il",
      "mivkofoulemont lee",
      "neoomeéónshuit jozouléiti"
    ]
  }
}